node {
  name: "global_step/Initializer/zeros/shape_as_tensor"
  op: "Const"
  attr {
    key: "_class"
    value {
      list {
        s: "loc:@global_step"
      }
    }
  }
  attr {
    key: "_output_shapes"
    value {
      list {
        shape {
          dim {
          }
        }
      }
    }
  }
  attr {
    key: "dtype"
    value {
      type: DT_INT32
    }
  }
  attr {
    key: "value"
    value {
      tensor {
        dtype: DT_INT32
        tensor_shape {
          dim {
          }
        }
      }
    }
  }
}
node {
  name: "global_step/Initializer/zeros/Const"
  op: "Const"
  attr {
    key: "_class"
    value {
      list {
        s: "loc:@global_step"
      }
    }
  }
  attr {
    key: "_output_shapes"
    value {
      list {
        shape {
        }
      }
    }
  }
  attr {
    key: "dtype"
    value {
      type: DT_INT64
    }
  }
  attr {
    key: "value"
    value {
      tensor {
        dtype: DT_INT64
        tensor_shape {
        }
        int64_val: 0
      }
    }
  }
}
node {
  name: "global_step/Initializer/zeros"
  op: "Fill"
  input: "global_step/Initializer/zeros/shape_as_tensor"
  input: "global_step/Initializer/zeros/Const"
  attr {
    key: "T"
    value {
      type: DT_INT64
    }
  }
  attr {
    key: "_class"
    value {
      list {
        s: "loc:@global_step"
      }
    }
  }
  attr {
    key: "_output_shapes"
    value {
      list {
        shape {
        }
      }
    }
  }
  attr {
    key: "index_type"
    value {
      type: DT_INT32
    }
  }
}
node {
  name: "global_step"
  op: "VariableV2"
  attr {
    key: "_class"
    value {
      list {
        s: "loc:@global_step"
      }
    }
  }
  attr {
    key: "_output_shapes"
    value {
      list {
        shape {
        }
      }
    }
  }
  attr {
    key: "container"
    value {
      s: ""
    }
  }
  attr {
    key: "dtype"
    value {
      type: DT_INT64
    }
  }
  attr {
    key: "shape"
    value {
      shape {
      }
    }
  }
  attr {
    key: "shared_name"
    value {
      s: ""
    }
  }
}
node {
  name: "global_step/Assign"
  op: "Assign"
  input: "global_step"
  input: "global_step/Initializer/zeros"
  attr {
    key: "T"
    value {
      type: DT_INT64
    }
  }
  attr {
    key: "_class"
    value {
      list {
        s: "loc:@global_step"
      }
    }
  }
  attr {
    key: "_output_shapes"
    value {
      list {
        shape {
        }
      }
    }
  }
  attr {
    key: "use_locking"
    value {
      b: true
    }
  }
  attr {
    key: "validate_shape"
    value {
      b: true
    }
  }
}
node {
  name: "global_step/read"
  op: "Identity"
  input: "global_step"
  attr {
    key: "T"
    value {
      type: DT_INT64
    }
  }
  attr {
    key: "_class"
    value {
      list {
        s: "loc:@global_step"
      }
    }
  }
  attr {
    key: "_output_shapes"
    value {
      list {
        shape {
        }
      }
    }
  }
}
node {
  name: "global_step/IsVariableInitialized"
  op: "IsVariableInitialized"
  input: "global_step"
  attr {
    key: "_class"
    value {
      list {
        s: "loc:@global_step"
      }
    }
  }
  attr {
    key: "_output_shapes"
    value {
      list {
        shape {
        }
      }
    }
  }
  attr {
    key: "dtype"
    value {
      type: DT_INT64
    }
  }
}
node {
  name: "global_step/cond/Switch"
  op: "Switch"
  input: "global_step/IsVariableInitialized"
  input: "global_step/IsVariableInitialized"
  attr {
    key: "T"
    value {
      type: DT_BOOL
    }
  }
  attr {
    key: "_output_shapes"
    value {
      list {
        shape {
        }
        shape {
        }
      }
    }
  }
}
node {
  name: "global_step/cond/switch_t"
  op: "Identity"
  input: "global_step/cond/Switch:1"
  attr {
    key: "T"
    value {
      type: DT_BOOL
    }
  }
  attr {
    key: "_output_shapes"
    value {
      list {
        shape {
        }
      }
    }
  }
}
node {
  name: "global_step/cond/switch_f"
  op: "Identity"
  input: "global_step/cond/Switch"
  attr {
    key: "T"
    value {
      type: DT_BOOL
    }
  }
  attr {
    key: "_output_shapes"
    value {
      list {
        shape {
        }
      }
    }
  }
}
node {
  name: "global_step/cond/pred_id"
  op: "Identity"
  input: "global_step/IsVariableInitialized"
  attr {
    key: "T"
    value {
      type: DT_BOOL
    }
  }
  attr {
    key: "_output_shapes"
    value {
      list {
        shape {
        }
      }
    }
  }
}
node {
  name: "global_step/cond/read"
  op: "Identity"
  input: "global_step/cond/read/Switch:1"
  attr {
    key: "T"
    value {
      type: DT_INT64
    }
  }
  attr {
    key: "_output_shapes"
    value {
      list {
        shape {
        }
      }
    }
  }
}
node {
  name: "global_step/cond/read/Switch"
  op: "RefSwitch"
  input: "global_step"
  input: "global_step/cond/pred_id"
  attr {
    key: "T"
    value {
      type: DT_INT64
    }
  }
  attr {
    key: "_class"
    value {
      list {
        s: "loc:@global_step"
      }
    }
  }
  attr {
    key: "_output_shapes"
    value {
      list {
        shape {
        }
        shape {
        }
      }
    }
  }
}
node {
  name: "global_step/cond/Switch_1"
  op: "Switch"
  input: "global_step/Initializer/zeros"
  input: "global_step/cond/pred_id"
  attr {
    key: "T"
    value {
      type: DT_INT64
    }
  }
  attr {
    key: "_class"
    value {
      list {
        s: "loc:@global_step"
      }
    }
  }
  attr {
    key: "_output_shapes"
    value {
      list {
        shape {
        }
        shape {
        }
      }
    }
  }
}
node {
  name: "global_step/cond/Merge"
  op: "Merge"
  input: "global_step/cond/Switch_1"
  input: "global_step/cond/read"
  attr {
    key: "N"
    value {
      i: 2
    }
  }
  attr {
    key: "T"
    value {
      type: DT_INT64
    }
  }
  attr {
    key: "_output_shapes"
    value {
      list {
        shape {
        }
        shape {
        }
      }
    }
  }
}
node {
  name: "global_step/add/y"
  op: "Const"
  attr {
    key: "_output_shapes"
    value {
      list {
        shape {
        }
      }
    }
  }
  attr {
    key: "dtype"
    value {
      type: DT_INT64
    }
  }
  attr {
    key: "value"
    value {
      tensor {
        dtype: DT_INT64
        tensor_shape {
        }
        int64_val: 0
      }
    }
  }
}
node {
  name: "global_step/add"
  op: "Add"
  input: "global_step/cond/Merge"
  input: "global_step/add/y"
  attr {
    key: "T"
    value {
      type: DT_INT64
    }
  }
  attr {
    key: "_output_shapes"
    value {
      list {
        shape {
        }
      }
    }
  }
}
node {
  name: "Const"
  op: "Const"
  device: "/device:CPU:0"
  attr {
    key: "_output_shapes"
    value {
      list {
        shape {
          dim {
            size: 100
          }
          dim {
            size: 10
          }
          dim {
            size: 4
          }
        }
      }
    }
  }
  attr {
    key: "dtype"
    value {
      type: DT_FLOAT
    }
  }
  attr {
    key: "value"
    value {
      tensor {
        dtype: DT_FLOAT
        tensor_shape {
          dim {
            size: 100
          }
          dim {
            size: 10
          }
          dim {
            size: 4
          }
        }
        tensor_content: "\000\000\200?\000\000\000\000\000\000\000\000\000\000\000\000\000\000\200?\000\000\000\000\000\000\000\000\000\000\000\000\000\000\200?\000\000\000\000\000\000\000\000\000\000\000\000\000\000\200?\000\000\000\000\000\000\000\000\000\000\000\000\000\000\200?\000\000\000\000\000\000\000\000\000\000\000\000\000\000\200?\000\000\000\000\000\000\000\000\000\000\000\000\000\000\200?\000\000\000\000\000\000\000\000\000\000\000\000\000\000\200?\000\000\000\000\000\000\000\000\000\000\000\000\000\000\200?\000\000\000\000\000\000\000\000\000\000\000\000\000\000\200?\000\000\000\000\000\000\000\000\000\000\000\000\000\000\200?\000\000\000\000\000\000\000\000\000\000\000\000\000\000\200?\000\000\000\000\000\000\000\000\000\000\000\000\000\000\200?\000\000\000\000\000\000\000\000\000\000\000\000\000\000\200?\000\000\000\000\000\000\000\000\000\000\000\000\000\000\200?\000\000\000\000\000\000\000\000\000\000\000\000\000\000\200?\000\000\000\000\000\000\000\000\000\000\000\000\000\000\200?\000\000\000\000\000\000\000\000\000\000\000\000\000\000\200?\000\000\000\000\000\000\000\000\000\000\000\000\000\000\200?\000\000\000\000\000\000\000\000\000\000\000\000\000\000\200?\000\000\000\000\000\000\000\000\000\000\000\000\000\000\200?\000\000\000\000\000\000\000\000\000\000\000\000\000\000\200?\000\000\000\000\000\000\000\000\000\000\000\000\000\000\200?\000\000\000\000\000\000\000\000\000\000\000\000\000\000\200?\000\000\000\000\000\000\000\000\000\000\000\000\000\000\200?\000\000\000\000\000\000\000\000\000\000\000\000\000\000\200?\000\000\000\000\000\000\000\000\000\000\000\000\000\000\200?\000\000\000\000\000\000\000\000\000\000\000\000\000\000\200?\000\000\000\000\000\000\000\000\000\000\000\000\000\000\200?\000\000\000\000\000\000\000\000\000\000\000\000\000\000\200?\000\000\000\000\000\000\000\000\000\000\000\000\000\000\200?\000\000\000\000\000\000\000\000\000\000\000\000\000\000\200?\000\000\000\000\000\000\000\000\000\000\000\000\000\000\200?\000\000\000\000\000\000\000\000\000\000\000\000\000\000\200?\000\000\000\000\000\000\000\000\000\000\000\000\000\000\200?\000\000\000\000\000\000\000\000\000\000\000\000\000\000\200?\000\000\000\000\000\000\000\000\000\000\000\000\000\000\200?\000\000\000\000\000\000\000\000\000\000\000\000\000\000\200?\000\000\000\000\000\000\000\000\000\000\000\000\000\000\200?\000\000\000\000\000\000\000\000\000\000\000\000\000\000\200?\000\000\000\000\000\000\000\000\000\000\000\000\000\000\200?\000\000\000\000\000\000\000\000\000\000\000\000\000\000\200?\000\000\000\000\000\000\000\000\000\000\000\000\000\000\200?\000\000\000\000\000\000\000\000\000\000\000\000\000\000\200?\000\000\000\000\000\000\000\000\000\000\000\000\000\000\200?\000\000\000\000\000\000\000\000\000\000\000\000\000\000\200?\000\000\000\000\000\000\000\000\000\000\000\000\000\000\200?\000\000\000\000\000\000\000\000\000\000\000\000\000\000\200?\000\000\000\000\000\000\000\000\000\000\000\000\000\000\200?\000\000\000\000\000\000\000\000\000\000\000\000\000\000\200?\000\000\000\000\000\000\000\000\000\000\000\000\000\000\200?\000\000\000\000\000\000\000\000\000\000\000\000\000\000\200?\000\000\000\000\000\000\000\000\000\000\000\000\000\000\200?\000\000\000\000\000\000\000\000\000\000\000\000\000\000\200?\000\000\000\000\000\000\000\000\000\000\000\000\000\000\200?\000\000\000\000\000\000\000\000\000\000\000\000\000\000\200?\000\000\000\000\000\000\000\000\000\000\000\000\000\000\200?\000\000\000\000\000\000\000\000\000\000\000\000\000\000\200?\000\000\000\000\000\000\000\000\000\000\000\000\000\000\200?\000\000\000\000\000\000\000\000\000\000\000\000\000\000\200?\000\000\000\000\000\000\000\000\000\000\000\000\000\000\200?\000\000\000\000\000\000\000\000\000\000\000\000\000\000\200?\000\000\000\000\000\000\000\000\000\000\000\000\000\000\200?\000\000\000\000\000\000\000\000\000\000\000\000\000\000\200?\000\000\000\000\000\000\000\000\000\000\000\000\000\000\200?\000\000\000\000\000\000\000\000\000\000\000\000\000\000\200?\000\000\000\000\000\000\000\000\000\000\000\000\000\000\200?\000\000\000\000\000\000\000\000\000\000\000\000\000\000\200?\000\000\000\000\000\000\000\000\000\000\000\000\000\000\200?\000\000\000\000\000\000\000\000\000\000\000\000\000\000\200?\000\000\000\000\000\000\000\000\000\000\000\000\000\000\200?\000\000\000\000\000\000\000\000\000\000\000\000\000\000\200?\000\000\000\000\000\000\000\000\000\000\000\000\000\000\200?\000\000\000\000\000\000\000\000\000\000\000\000\000\000\200?\000\000\000\000\000\000\000\000\000\000\000\000\000\000\200?\000\000\000\000\000\000\000\000\000\000\000\000\000\000\200?\000\000\000\000\000\000\000\000\000\000\000\000\000\000\200?\000\000\000\000\000\000\000\000\000\000\000\000\000\000\200?\000\000\000\000\000\000\000\000\000\000\000\000\000\000\200?\000\000\000\000\000\000\000\000\000\000\000\000\000\000\200?\000\000\000\000\000\000\000\000\000\000\000\000\000\000\200?\000\000\000\000\000\000\000\000\000\000\000\000\000\000\200?\000\000\000\000\000\000\000\000\000\000\000\000\000\000\200?\000\000\000\000\000\000\000\000\000\000\000\000\000\000\200?\000\000\000\000\000\000\000\000\000\000\000\000\000\000\200?\000\000\000\000\000\000\000\000\000\000\000\000\000\000\200?\000\000\000\000\000\000\000\000\000\000\000\000\000\000\200?\000\000\000\000\000\000\000\000\000\000\000\000\000\000\200?\000\000\000\000\000\000\000\000\000\000\000\000\000\000\200?\000\000\000\000\000\000\000\000\000\000\000\000\000\000\200?\000\000\000\000\000\000\000\000\000\000\000\000\000\000\200?\000\000\000\000\000\000\000\000\000\000\000\000\000\000\200?\000\000\000\000\000\000\000\000\000\000\000\000\000\000\200?\000\000\000\000\000\000\000\000\000\000\000\000\000\000\200?\000\000\000\000\000\000\000\000\000\000\000\000\000\000\200?\000\000\000\000\000\000\000\000\000\000\000\000\000\000\200?\000\000\000\000\000\000\000\000\000\000\000\000\000\000\200?\000\000\000\000\000\000\000\000\000\000\000\000\000\000\200?\000\000\000\000\000\000\000\000\000\000\000\000\000\000\200?\000\000\000\000\000\000\000\000\000\000\000\000\000\000\200?\000\000\000\000\000\000\000\000\000\000\000\000\000\000\200?\000\000\000\000\000\000\000\000\000\000\000\000\000\000\200?\000\000\000\000\000\000\000\000\000\000\000\000\000\000\200?\000\000\000\000\000\000\000\000\000\000\000\000\000\000\200?\000\000\000\000\000\000\000\000\000\000\000\000\000\000\200?\000\000\000\000\000\000\000\000\000\000\000\000\000\000\200?\000\000\000\000\000\000\000\000\000\000\000\000\000\000\200?\000\000\000\000\000\000\000\000\000\000\000\000\000\000\200?\000\000\000\000\000\000\000\000\000\000\000\000\000\000\200?\000\000\000\000\000\000\000\000\000\000\000\000\000\000\200?\000\000\000\000\000\000\000\000\000\000\000\000\000\000\200?\000\000\000\000\000\000\000\000\000\000\000\000\000\000\200?\000\000\000\000\000\000\000\000\000\000\000\000\000\000\200?\000\000\000\000\000\000\000\000\000\000\000\000\000\000\200?\000\000\000\000\000\000\000\000\000\000\000\000\000\000\200?\000\000\000\000\000\000\000\000\000\000\000\000\000\000\200?\000\000\000\000\000\000\000\000\000\000\000\000\000\000\200?\000\000\000\000\000\000\000\000\000\000\000\000\000\000\200?\000\000\000\000\000\000\000\000\000\000\000\000\000\000\200?\000\000\000\000\000\000\000\000\000\000\000\000\000\000\200?\000\000\000\000\000\000\000\000\000\000\000\000\000\000\200?\000\000\000\000\000\000\000\000\000\000\000\000\000\000\200?\000\000\000\000\000\000\000\000\000\000\000\000\000\000\200?\000\000\000\000\000\000\000\000\000\000\000\000\000\000\200?\000\000\000\000\000\000\000\000\000\000\000\000\000\000\200?\000\000\000\000\000\000\000\000\000\000\000\000\000\000\200?\000\000\000\000\000\000\000\000\000\000\000\000\000\000\200?\000\000\000\000\000\000\000\000\000\000\000\000\000\000\200?\000\000\000\000\000\000\000\000\000\000\000\000\000\000\200?\000\000\000\000\000\000\000\000\000\000\000\000\000\000\200?\000\000\000\000\000\000\000\000\000\000\000\000\000\000\200?\000\000\000\000\000\000\000\000\000\000\000\000\000\000\200?\000\000\000\000\000\000\000\000\000\000\000\000\000\000\200?\000\000\000\000\000\000\000\000\000\000\000\000\000\000\200?\000\000\000\000\000\000\000\000\000\000\000\000\000\000\200?\000\000\000\000\000\000\000\000\000\000\000\000\000\000\200?\000\000\000\000\000\000\000\000\000\000\000\000\000\000\200?\000\000\000\000\000\000\000\000\000\000\000\000\000\000\200?\000\000\000\000\000\000\000\000\000\000\000\000\000\000\200?\000\000\000\000\000\000\000\000\000\000\000\000\000\000\200?\000\000\000\000\000\000\000\000\000\000\000\000\000\000\200?\000\000\000\000\000\000\000\000\000\000\000\000\000\000\200?\000\000\000\000\000\000\000\000\000\000\000\000\000\000\200?\000\000\000\000\000\000\000\000\000\000\000\000\000\000\200?\000\000\000\000\000\000\000\000\000\000\000\000\000\000\200?\000\000\000\000\000\000\000\000\000\000\000\000\000\000\200?\000\000\000\000\000\000\000\000\000\000\000\000\000\000\200?\000\000\000\000\000\000\000\000\000\000\000\000\000\000\200?\000\000\000\000\000\000\000\000\000\000\000\000\000\000\200?\000\000\000\000\000\000\000\000\000\000\000\000\000\000\200?\000\000\000\000\000\000\000\000\000\000\000\000\000\000\200?\000\000\000\000\000\000\000\000\000\000\000\000\000\000\200?\000\000\000\000\000\000\000\000\000\000\000\000\000\000\200?\000\000\000\000\000\000\000\000\000\000\000\000\000\000\200?\000\000\000\000\000\000\000\000\000\000\000\000\000\000\200?\000\000\000\000\000\000\000\000\000\000\000\000\000\000\200?\000\000\000\000\000\000\000\000\000\000\000\000\000\000\200?\000\000\000\000\000\000\000\000\000\000\000\000\000\000\200?\000\000\000\000\000\000\000\000\000\000\000\000\000\000\200?\000\000\000\000\000\000\000\000\000\000\000\000\000\000\200?\000\000\000\000\000\000\000\000\000\000\000\000\000\000\200?\000\000\000\000\000\000\000\000\000\000\000\000\000\000\200?\000\000\000\000\000\000\000\000\000\000\000\000\000\000\200?\000\000\000\000\000\000\000\000\000\000\000\000\000\000\200?\000\000\000\000\000\000\000\000\000\000\000\000\000\000\200?\000\000\000\000\000\000\000\000\000\000\000\000\000\000\200?\000\000\000\000\000\000\000\000\000\000\000\000\000\000\200?\000\000\000\000\000\000\000\000\000\000\000\000\000\000\200?\000\000\000\000\000\000\000\000\000\000\000\000\000\000\200?\000\000\000\000\000\000\000\000\000\000\000\000\000\000\200?\000\000\000\000\000\000\000\000\000\000\000\000\000\000\200?\000\000\000\000\000\000\000\000\000\000\000\000\000\000\200?\000\000\000\000\000\000\000\000\000\000\000\000\000\000\200?\000\000\000\000\000\000\000\000\000\000\000\000\000\000\200?\000\000\000\000\000\000\000\000\000\000\000\000\000\000\200?\000\000\000\000\000\000\000\000\000\000\000\000\000\000\200?\000\000\000\000\000\000\000\000\000\000\000\000\000\000\200?\000\000\000\000\000\000\000\000\000\000\000\000\000\000\200?\000\000\000\000\000\000\000\000\000\000\000\000\000\000\200?\000\000\000\000\000\000\000\000\000\000\000\000\000\000\200?\000\000\000\000\000\000\000\000\000\000\000\000\000\000\200?\000\000\000\000\000\000\000\000\000\000\000\000\000\000\200?\000\000\000\000\000\000\000\000\000\000\000\000\000\000\200?\000\000\000\000\000\000\000\000\000\000\000\000\000\000\200?\000\000\000\000\000\000\000\000\000\000\000\000\000\000\200?\000\000\000\000\000\000\000\000\000\000\000\000\000\000\200?\000\000\000\000\000\000\000\000\000\000\000\000\000\000\200?\000\000\000\000\000\000\000\000\000\000\000\000\000\000\200?\000\000\000\000\000\000\000\000\000\000\000\000\000\000\200?\000\000\000\000\000\000\000\000\000\000\000\000\000\000\200?\000\000\000\000\000\000\000\000\000\000\000\000\000\000\200?\000\000\000\000\000\000\000\000\000\000\000\000\000\000\200?\000\000\000\000\000\000\000\000\000\000\000\000\000\000\200?\000\000\000\000\000\000\000\000\000\000\000\000\000\000\200?\000\000\000\000\000\000\000\000\000\000\000\000\000\000\200?\000\000\000\000\000\000\000\000\000\000\000\000\000\000\200?\000\000\000\000\000\000\000\000\000\000\000\000\000\000\200?\000\000\000\000\000\000\000\000\000\000\000\000\000\000\200?\000\000\000\000\000\000\000\000\000\000\000\000\000\000\200?\000\000\000\000\000\000\000\000\000\000\000\000\000\000\200?\000\000\000\000\000\000\000\000\000\000\000\000\000\000\200?\000\000\000\000\000\000\000\000\000\000\000\000\000\000\200?\000\000\000\000\000\000\000\000\000\000\000\000\000\000\200?\000\000\000\000\000\000\000\000\000\000\000\000\000\000\200?\000\000\000\000\000\000\000\000\000\000\000\000\000\000\200?\000\000\000\000\000\000\000\000\000\000\000\000\000\000\200?\000\000\000\000\000\000\000\000\000\000\000\000\000\000\200?\000\000\000\000\000\000\000\000\000\000\000\000\000\000\200?\000\000\000\000\000\000\000\000\000\000\000\000\000\000\200?\000\000\000\000\000\000\000\000\000\000\000\000\000\000\200?\000\000\000\000\000\000\000\000\000\000\000\000\000\000\200?\000\000\000\000\000\000\000\000\000\000\000\000\000\000\200?\000\000\000\000\000\000\000\000\000\000\000\000\000\000\200?\000\000\000\000\000\000\000\000\000\000\000\000\000\000\200?\000\000\000\000\000\000\000\000\000\000\000\000\000\000\200?\000\000\000\000\000\000\000\000\000\000\000\000\000\000\200?\000\000\000\000\000\000\000\000\000\000\000\000\000\000\200?\000\000\000\000\000\000\000\000\000\000\000\000\000\000\200?\000\000\000\000\000\000\000\000\000\000\000\000\000\000\200?\000\000\000\000\000\000\000\000\000\000\000\000\000\000\200?\000\000\000\000\000\000\000\000\000\000\000\000\000\000\200?\000\000\000\000\000\000\000\000\000\000\000\000\000\000\200?\000\000\000\000\000\000\000\000\000\000\000\000\000\000\200?\000\000\000\000\000\000\000\000\000\000\000\000\000\000\200?\000\000\000\000\000\000\000\000\000\000\000\000\000\000\200?\000\000\000\000\000\000\000\000\000\000\000\000\000\000\200?\000\000\000\000\000\000\000\000\000\000\000\000\000\000\200?\000\000\000\000\000\000\000\000\000\000\000\000\000\000\200?\000\000\000\000\000\000\000\000\000\000\000\000\000\000\200?\000\000\000\000\000\000\000\000\000\000\000\000\000\000\200?\000\000\000\000\000\000\000\000\000\000\000\000\000\000\200?\000\000\000\000\000\000\000\000\000\000\000\000\000\000\200?\000\000\000\000\000\000\000\000\000\000\000\000\000\000\200?\000\000\000\000\000\000\000\000\000\000\000\000\000\000\200?\000\000\000\000\000\000\000\000\000\000\000\000\000\000\200?\000\000\000\000\000\000\000\000\000\000\000\000\000\000\200?\000\000\000\000\000\000\000\000\000\000\000\000\000\000\200?\000\000\000\000\000\000\000\000\000\000\000\000\000\000\200?\000\000\000\000\000\000\000\000\000\000\000\000\000\000\200?\000\000\000\000\000\000\000\000\000\000\000\000\000\000\200?\000\000\000\000\000\000\000\000\000\000\000\000\000\000\200?\000\000\000\000\000\000\000\000\000\000\000\000\000\000\200?\000\000\000\000\000\000\000\000\000\000\000\000\000\000\200?\000\000\000\000\000\000\000\000\000\000\000\000\000\000\200?\000\000\000\000\000\000\000\000\000\000\000\000\000\000\200?\000\000\000\000\000\000\000\000\000\000\000\000\000\000\200?\000\000\000\000\000\000\000\000\000\000\000\000\000\000\200?\000\000\000\000\000\000\000\000\000\000\000\000\000\000\200?\000\000\000\000\000\000\000\000\000\000\000\000\000\000\200?\000\000\000\000\000\000\000\000\000\000\000\000\000\000\200?\000\000\000\000\000\000\000\000\000\000\000\000\000\000\200?\000\000\000\000\000\000\000\000\000\000\000\000\000\000\200?\000\000\000\000\000\000\000\000\000\000\000\000\000\000\200?\000\000\000\000\000\000\000\000\000\000\000\000\000\000\200?\000\000\000\000\000\000\000\000\000\000\000\000\000\000\200?\000\000\000\000\000\000\000\000\000\000\000\000\000\000\200?\000\000\000\000\000\000\000\000\000\000\000\000\000\000\200?\000\000\000\000\000\000\000\000\000\000\000\000\000\000\200?\000\000\000\000\000\000\000\000\000\000\000\000\000\000\200?\000\000\000\000\000\000\000\000\000\000\000\000\000\000\200?\000\000\000\000\000\000\000\000\000\000\000\000\000\000\200?\000\000\000\000\000\000\000\000\000\000\000\000\000\000\200?\000\000\000\000\000\000\000\000\000\000\000\000\000\000\200?\000\000\000\000\000\000\000\000\000\000\000\000\000\000\200?\000\000\000\000\000\000\000\000\000\000\000\000\000\000\200?\000\000\000\000\000\000\000\000\000\000\000\000\000\000\200?\000\000\000\000\000\000\000\000\000\000\000\000\000\000\200?\000\000\000\000\000\000\000\000\000\000\000\000\000\000\200?\000\000\000\000\000\000\000\000\000\000\000\000\000\000\200?\000\000\000\000\000\000\000\000\000\000\000\000\000\000\200?\000\000\000\000\000\000\000\000\000\000\000\000\000\000\200?\000\000\000\000\000\000\000\000\000\000\000\000\000\000\200?\000\000\000\000\000\000\000\000\000\000\000\000\000\000\200?\000\000\000\000\000\000\000\000\000\000\000\000\000\000\200?\000\000\000\000\000\000\000\000\000\000\000\000\000\000\200?\000\000\000\000\000\000\000\000\000\000\000\000\000\000\200?\000\000\000\000\000\000\000\000\000\000\000\000\000\000\200?\000\000\000\000\000\000\000\000\000\000\000\000\000\000\200?\000\000\000\000\000\000\000\000\000\000\000\000\000\000\200?\000\000\000\000\000\000\000\000\000\000\000\000\000\000\200?\000\000\000\000\000\000\000\000\000\000\000\000\000\000\200?\000\000\000\000\000\000\000\000\000\000\000\000\000\000\200?\000\000\000\000\000\000\000\000\000\000\000\000\000\000\200?\000\000\000\000\000\000\000\000\000\000\000\000\000\000\200?\000\000\000\000\000\000\000\000\000\000\000\000\000\000\200?\000\000\000\000\000\000\000\000\000\000\000\000\000\000\200?\000\000\000\000\000\000\000\000\000\000\000\000\000\000\200?\000\000\000\000\000\000\000\000\000\000\000\000\000\000\200?\000\000\000\000\000\000\000\000\000\000\000\000\000\000\200?\000\000\000\000\000\000\000\000\000\000\000\000\000\000\200?\000\000\000\000\000\000\000\000\000\000\000\000\000\000\200?\000\000\000\000\000\000\000\000\000\000\000\000\000\000\200?\000\000\000\000\000\000\000\000\000\000\000\000\000\000\200?\000\000\000\000\000\000\000\000\000\000\000\000\000\000\200?\000\000\000\000\000\000\000\000\000\000\000\000\000\000\200?\000\000\000\000\000\000\000\000\000\000\000\000\000\000\200?\000\000\000\000\000\000\000\000\000\000\000\000\000\000\200?\000\000\000\000\000\000\000\000\000\000\000\000\000\000\200?\000\000\000\000\000\000\000\000\000\000\000\000\000\000\200?\000\000\000\000\000\000\000\000\000\000\000\000\000\000\200?\000\000\000\000\000\000\000\000\000\000\000\000\000\000\200?\000\000\000\000\000\000\000\000\000\000\000\000\000\000\200?\000\000\000\000\000\000\000\000\000\000\000\000\000\000\200?\000\000\000\000\000\000\000\000\000\000\000\000\000\000\200?\000\000\000\000\000\000\000\000\000\000\000\000\000\000\200?\000\000\000\000\000\000\000\000\000\000\000\000\000\000\200?\000\000\000\000\000\000\000\000\000\000\000\000\000\000\200?\000\000\000\000\000\000\000\000\000\000\000\000\000\000\200?\000\000\000\000\000\000\000\000\000\000\000\000\000\000\200?\000\000\000\000\000\000\000\000\000\000\000\000\000\000\200?\000\000\000\000\000\000\000\000\000\000\000\000\000\000\200?\000\000\000\000\000\000\000\000\000\000\000\000\000\000\200?\000\000\000\000\000\000\000\000\000\000\000\000\000\000\200?\000\000\000\000\000\000\000\000\000\000\000\000\000\000\200?\000\000\000\000\000\000\000\000\000\000\000\000\000\000\200?\000\000\000\000\000\000\000\000\000\000\000\000\000\000\200?\000\000\000\000\000\000\000\000\000\000\000\000\000\000\200?\000\000\000\000\000\000\000\000\000\000\000\000\000\000\200?\000\000\000\000\000\000\000\000\000\000\000\000\000\000\200?\000\000\000\000\000\000\000\000\000\000\000\000\000\000\200?\000\000\000\000\000\000\000\000\000\000\000\000\000\000\200?\000\000\000\000\000\000\000\000\000\000\000\000\000\000\200?\000\000\000\000\000\000\000\000\000\000\000\000\000\000\200?\000\000\000\000\000\000\000\000\000\000\000\000\000\000\200?\000\000\000\000\000\000\000\000\000\000\000\000\000\000\200?\000\000\000\000\000\000\000\000\000\000\000\000\000\000\200?\000\000\000\000\000\000\000\000\000\000\000\000\000\000\200?\000\000\000\000\000\000\000\000\000\000\000\000\000\000\200?\000\000\000\000\000\000\000\000\000\000\000\000\000\000\200?\000\000\000\000\000\000\000\000\000\000\000\000\000\000\200?\000\000\000\000\000\000\000\000\000\000\000\000\000\000\200?\000\000\000\000\000\000\000\000\000\000\000\000\000\000\200?\000\000\000\000\000\000\000\000\000\000\000\000\000\000\200?\000\000\000\000\000\000\000\000\000\000\000\000\000\000\200?\000\000\000\000\000\000\000\000\000\000\000\000\000\000\200?\000\000\000\000\000\000\000\000\000\000\000\000\000\000\200?\000\000\000\000\000\000\000\000\000\000\000\000\000\000\200?\000\000\000\000\000\000\000\000\000\000\000\000\000\000\200?\000\000\000\000\000\000\000\000\000\000\000\000\000\000\200?\000\000\000\000\000\000\000\000\000\000\000\000\000\000\200?\000\000\000\000\000\000\000\000\000\000\000\000\000\000\200?\000\000\000\000\000\000\000\000\000\000\000\000\000\000\200?\000\000\000\000\000\000\000\000\000\000\000\000\000\000\200?\000\000\000\000\000\000\000\000\000\000\000\000\000\000\200?\000\000\000\000\000\000\000\000\000\000\000\000\000\000\200?\000\000\000\000\000\000\000\000\000\000\000\000\000\000\200?\000\000\000\000\000\000\000\000\000\000\000\000\000\000\200?\000\000\000\000\000\000\000\000\000\000\000\000\000\000\200?\000\000\000\000\000\000\000\000\000\000\000\000\000\000\200?\000\000\000\000\000\000\000\000\000\000\000\000\000\000\200?\000\000\000\000\000\000\000\000\000\000\000\000\000\000\200?\000\000\000\000\000\000\000\000\000\000\000\000\000\000\200?\000\000\000\000\000\000\000\000\000\000\000\000\000\000\200?\000\000\000\000\000\000\000\000\000\000\000\000\000\000\200?\000\000\000\000\000\000\000\000\000\000\000\000\000\000\200?\000\000\000\000\000\000\000\000\000\000\000\000\000\000\200?\000\000\000\000\000\000\000\000\000\000\000\000\000\000\200?\000\000\000\000\000\000\000\000\000\000\000\000\000\000\200?\000\000\000\000\000\000\000\000\000\000\000\000\000\000\200?\000\000\000\000\000\000\000\000\000\000\000\000\000\000\200?\000\000\000\000\000\000\000\000\000\000\000\000\000\000\200?\000\000\000\000\000\000\000\000\000\000\000\000\000\000\200?\000\000\000\000\000\000\000\000\000\000\000\000\000\000\200?\000\000\000\000\000\000\000\000\000\000\000\000\000\000\200?\000\000\000\000\000\000\000\000\000\000\000\000\000\000\200?\000\000\000\000\000\000\000\000\000\000\000\000\000\000\200?\000\000\000\000\000\000\000\000\000\000\000\000\000\000\200?\000\000\000\000\000\000\000\000\000\000\000\000\000\000\200?\000\000\000\000\000\000\000\000\000\000\000\000\000\000\200?\000\000\000\000\000\000\000\000\000\000\000\000\000\000\200?\000\000\000\000\000\000\000\000\000\000\000\000\000\000\200?\000\000\000\000\000\000\000\000\000\000\000\000\000\000\200?\000\000\000\000\000\000\000\000\000\000\000\000\000\000\200?\000\000\000\000\000\000\000\000\000\000\000\000\000\000\200?\000\000\000\000\000\000\000\000\000\000\000\000\000\000\200?\000\000\000\000\000\000\000\000\000\000\000\000\000\000\200?\000\000\000\000\000\000\000\000\000\000\000\000\000\000\200?\000\000\000\000\000\000\000\000\000\000\000\000\000\000\200?\000\000\000\000\000\000\000\000\000\000\000\000\000\000\200?\000\000\000\000\000\000\000\000\000\000\000\000\000\000\200?\000\000\000\000\000\000\000\000\000\000\000\000\000\000\200?\000\000\000\000\000\000\000\000\000\000\000\000\000\000\200?\000\000\000\000\000\000\000\000\000\000\000\000\000\000\200?\000\000\000\000\000\000\000\000\000\000\000\000\000\000\200?\000\000\000\000\000\000\000\000\000\000\000\000\000\000\200?\000\000\000\000\000\000\000\000\000\000\000\000\000\000\200?\000\000\000\000\000\000\000\000\000\000\000\000\000\000\200?\000\000\000\000\000\000\000\000\000\000\000\000\000\000\200?\000\000\000\000\000\000\000\000\000\000\000\000\000\000\200?\000\000\000\000\000\000\000\000\000\000\000\000\000\000\200?\000\000\000\000\000\000\000\000\000\000\000\000\000\000\200?\000\000\000\000\000\000\000\000\000\000\000\000\000\000\200?\000\000\000\000\000\000\000\000\000\000\000\000\000\000\200?\000\000\000\000\000\000\000\000\000\000\000\000\000\000\200?\000\000\000\000\000\000\000\000\000\000\000\000\000\000\200?\000\000\000\000\000\000\000\000\000\000\000\000\000\000\200?\000\000\000\000\000\000\000\000\000\000\000\000\000\000\200?\000\000\000\000\000\000\000\000\000\000\000\000\000\000\200?\000\000\000\000\000\000\000\000\000\000\000\000\000\000\200?\000\000\000\000\000\000\000\000\000\000\000\000\000\000\200?\000\000\000\000\000\000\000\000\000\000\000\000\000\000\200?\000\000\000\000\000\000\000\000\000\000\000\000\000\000\200?\000\000\000\000\000\000\000\000\000\000\000\000\000\000\200?\000\000\000\000\000\000\000\000\000\000\000\000\000\000\200?\000\000\000\000\000\000\000\000\000\000\000\000\000\000\200?\000\000\000\000\000\000\000\000\000\000\000\000\000\000\200?\000\000\000\000\000\000\000\000\000\000\000\000\000\000\200?\000\000\000\000\000\000\000\000\000\000\000\000\000\000\200?\000\000\000\000\000\000\000\000\000\000\000\000\000\000\200?\000\000\000\000\000\000\000\000\000\000\000\000\000\000\200?\000\000\000\000\000\000\000\000\000\000\000\000\000\000\200?\000\000\000\000\000\000\000\000\000\000\000\000\000\000\200?\000\000\000\000\000\000\000\000\000\000\000\000\000\000\200?\000\000\000\000\000\000\000\000\000\000\000\000\000\000\200?\000\000\000\000\000\000\000\000\000\000\000\000\000\000\200?\000\000\000\000\000\000\000\000\000\000\000\000\000\000\200?\000\000\000\000\000\000\000\000\000\000\000\000\000\000\200?\000\000\000\000\000\000\000\000\000\000\000\000\000\000\200?\000\000\000\000\000\000\000\000\000\000\000\000\000\000\200?\000\000\000\000\000\000\000\000\000\000\000\000\000\000\200?\000\000\000\000\000\000\000\000\000\000\000\000\000\000\200?\000\000\000\000\000\000\000\000\000\000\000\000\000\000\200?\000\000\000\000\000\000\000\000\000\000\000\000\000\000\200?\000\000\000\000\000\000\000\000\000\000\000\000\000\000\200?\000\000\000\000\000\000\000\000\000\000\000\000\000\000\200?\000\000\000\000\000\000\000\000\000\000\000\000\000\000\200?\000\000\000\000\000\000\000\000\000\000\000\000\000\000\200?\000\000\000\000\000\000\000\000\000\000\000\000\000\000\200?\000\000\000\000\000\000\000\000\000\000\000\000\000\000\200?\000\000\000\000\000\000\000\000\000\000\000\000\000\000\200?\000\000\000\000\000\000\000\000\000\000\000\000\000\000\200?\000\000\000\000\000\000\000\000\000\000\000\000\000\000\200?\000\000\000\000\000\000\000\000\000\000\000\000\000\000\200?\000\000\000\000\000\000\000\000\000\000\000\000\000\000\200?\000\000\000\000\000\000\000\000\000\000\000\000\000\000\200?\000\000\000\000\000\000\000\000\000\000\000\000\000\000\200?\000\000\000\000\000\000\000\000\000\000\000\000\000\000\200?\000\000\000\000\000\000\000\000\000\000\000\000\000\000\200?\000\000\000\000\000\000\000\000\000\000\000\000\000\000\200?\000\000\000\000\000\000\000\000\000\000\000\000\000\000\200?\000\000\000\000\000\000\000\000\000\000\000\000\000\000\200?\000\000\000\000\000\000\000\000\000\000\000\000\000\000\200?\000\000\000\000\000\000\000\000\000\000\000\000\000\000\200?\000\000\000\000\000\000\000\000\000\000\000\000\000\000\200?\000\000\000\000\000\000\000\000\000\000\000\000\000\000\200?\000\000\000\000\000\000\000\000\000\000\000\000\000\000\200?\000\000\000\000\000\000\000\000\000\000\000\000\000\000\200?\000\000\000\000\000\000\000\000\000\000\000\000\000\000\200?\000\000\000\000\000\000\000\000\000\000\000\000\000\000\200?\000\000\000\000\000\000\000\000\000\000\000\000\000\000\200?\000\000\000\000\000\000\000\000\000\000\000\000\000\000\200?\000\000\000\000\000\000\000\000\000\000\000\000\000\000\200?\000\000\000\000\000\000\000\000\000\000\000\000\000\000\200?\000\000\000\000\000\000\000\000\000\000\000\000\000\000\200?\000\000\000\000\000\000\000\000\000\000\000\000\000\000\200?\000\000\000\000\000\000\000\000\000\000\000\000\000\000\200?\000\000\000\000\000\000\000\000\000\000\000\000\000\000\200?\000\000\000\000\000\000\000\000\000\000\000\000\000\000\200?\000\000\000\000\000\000\000\000\000\000\000\000\000\000\200?\000\000\000\000\000\000\000\000\000\000\000\000\000\000\200?\000\000\000\000\000\000\000\000\000\000\000\000\000\000\200?\000\000\000\000\000\000\000\000\000\000\000\000\000\000\200?\000\000\000\000\000\000\000\000\000\000\000\000\000\000\200?\000\000\000\000\000\000\000\000\000\000\000\000\000\000\200?\000\000\000\000\000\000\000\000\000\000\000\000\000\000\200?\000\000\000\000\000\000\000\000\000\000\000\000\000\000\200?\000\000\000\000\000\000\000\000\000\000\000\000\000\000\200?\000\000\000\000\000\000\000\000\000\000\000\000\000\000\200?\000\000\000\000\000\000\000\000\000\000\000\000\000\000\200?\000\000\000\000\000\000\000\000\000\000\000\000\000\000\200?\000\000\000\000\000\000\000\000\000\000\000\000\000\000\200?\000\000\000\000\000\000\000\000\000\000\000\000\000\000\200?\000\000\000\000\000\000\000\000\000\000\000\000\000\000\200?\000\000\000\000\000\000\000\000\000\000\000\000\000\000\200?\000\000\000\000\000\000\000\000\000\000\000\000\000\000\200?\000\000\000\000\000\000\000\000\000\000\000\000\000\000\200?\000\000\000\000\000\000\000\000\000\000\000\000\000\000\200?\000\000\000\000\000\000\000\000\000\000\000\000\000\000\200?\000\000\000\000\000\000\000\000\000\000\000\000\000\000\200?\000\000\000\000\000\000\000\000\000\000\000\000\000\000\200?\000\000\000\000\000\000\000\000\000\000\000\000\000\000\200?\000\000\000\000\000\000\000\000\000\000\000\000\000\000\200?\000\000\000\000\000\000\000\000\000\000\000\000\000\000\200?\000\000\000\000\000\000\000\000\000\000\000\000\000\000\200?\000\000\000\000\000\000\000\000\000\000\000\000\000\000\200?\000\000\000\000\000\000\000\000\000\000\000\000\000\000\200?\000\000\000\000\000\000\000\000\000\000\000\000\000\000\200?\000\000\000\000\000\000\000\000\000\000\000\000\000\000\200?\000\000\000\000\000\000\000\000\000\000\000\000\000\000\200?\000\000\000\000\000\000\000\000\000\000\000\000\000\000\200?\000\000\000\000\000\000\000\000\000\000\000\000\000\000\200?\000\000\000\000\000\000\000\000\000\000\000\000\000\000\200?\000\000\000\000\000\000\000\000\000\000\000\000\000\000\200?\000\000\000\000\000\000\000\000\000\000\000\000\000\000\200?\000\000\000\000\000\000\000\000\000\000\000\000\000\000\200?\000\000\000\000\000\000\000\000\000\000\000\000\000\000\200?\000\000\000\000\000\000\000\000\000\000\000\000\000\000\200?\000\000\000\000\000\000\000\000\000\000\000\000\000\000\200?\000\000\000\000\000\000\000\000\000\000\000\000\000\000\200?\000\000\000\000\000\000\000\000\000\000\000\000\000\000\200?\000\000\000\000\000\000\000\000\000\000\000\000\000\000\200?\000\000\000\000\000\000\000\000\000\000\000\000\000\000\200?\000\000\000\000\000\000\000\000\000\000\000\000\000\000\200?\000\000\000\000\000\000\000\000\000\000\000\000\000\000\200?\000\000\000\000\000\000\000\000\000\000\000\000\000\000\200?\000\000\000\000\000\000\000\000\000\000\000\000\000\000\200?\000\000\000\000\000\000\000\000\000\000\000\000\000\000\200?\000\000\000\000\000\000\000\000\000\000\000\000\000\000\200?\000\000\000\000\000\000\000\000\000\000\000\000\000\000\200?\000\000\000\000\000\000\000\000\000\000\000\000\000\000\200?\000\000\000\000\000\000\000\000\000\000\000\000\000\000\200?\000\000\000\000\000\000\000\000\000\000\000\000\000\000\200?\000\000\000\000\000\000\000\000\000\000\000\000\000\000\200?\000\000\000\000\000\000\000\000\000\000\000\000\000\000\200?\000\000\000\000\000\000\000\000\000\000\000\000\000\000\200?\000\000\000\000\000\000\000\000\000\000\000\000\000\000\200?\000\000\000\000\000\000\000\000\000\000\000\000\000\000\200?\000\000\000\000\000\000\000\000\000\000\000\000\000\000\200?\000\000\000\000\000\000\000\000\000\000\000\000\000\000\200?\000\000\000\000\000\000\000\000\000\000\000\000\000\000\200?\000\000\000\000\000\000\000\000\000\000\000\000\000\000\200?\000\000\000\000\000\000\000\000\000\000\000\000\000\000\200?\000\000\000\000\000\000\000\000\000\000\000\000\000\000\200?\000\000\000\000\000\000\000\000\000\000\000\000\000\000\200?\000\000\000\000\000\000\000\000\000\000\000\000\000\000\200?\000\000\000\000\000\000\000\000\000\000\000\000\000\000\200?\000\000\000\000\000\000\000\000\000\000\000\000\000\000\200?\000\000\000\000\000\000\000\000\000\000\000\000\000\000\200?\000\000\000\000\000\000\000\000\000\000\000\000\000\000\200?\000\000\000\000\000\000\000\000\000\000\000\000\000\000\200?\000\000\000\000\000\000\000\000\000\000\000\000\000\000\200?\000\000\000\000\000\000\000\000\000\000\000\000\000\000\200?\000\000\000\000\000\000\000\000\000\000\000\000\000\000\200?\000\000\000\000\000\000\000\000\000\000\000\000\000\000\200?\000\000\000\000\000\000\000\000\000\000\000\000\000\000\200?\000\000\000\000\000\000\000\000\000\000\000\000\000\000\200?\000\000\000\000\000\000\000\000\000\000\000\000\000\000\200?\000\000\000\000\000\000\000\000\000\000\000\000\000\000\200?\000\000\000\000\000\000\000\000\000\000\000\000\000\000\200?\000\000\000\000\000\000\000\000\000\000\000\000\000\000\200?\000\000\000\000\000\000\000\000\000\000\000\000\000\000\200?\000\000\000\000\000\000\000\000\000\000\000\000\000\000\200?\000\000\000\000\000\000\000\000\000\000\000\000\000\000\200?\000\000\000\000\000\000\000\000\000\000\000\000\000\000\200?\000\000\000\000\000\000\000\000\000\000\000\000\000\000\200?\000\000\000\000\000\000\000\000\000\000\000\000\000\000\200?\000\000\000\000\000\000\000\000\000\000\000\000\000\000\200?\000\000\000\000\000\000\000\000\000\000\000\000\000\000\200?\000\000\000\000\000\000\000\000\000\000\000\000\000\000\200?\000\000\000\000\000\000\000\000\000\000\000\000\000\000\200?\000\000\000\000\000\000\000\000\000\000\000\000\000\000\200?\000\000\000\000\000\000\000\000\000\000\000\000\000\000\200?\000\000\000\000\000\000\000\000\000\000\000\000\000\000\200?\000\000\000\000\000\000\000\000\000\000\000\000\000\000\200?\000\000\000\000\000\000\000\000\000\000\000\000\000\000\200?\000\000\000\000\000\000\000\000\000\000\000\000\000\000\200?\000\000\000\000\000\000\000\000\000\000\000\000\000\000\200?\000\000\000\000\000\000\000\000\000\000\000\000\000\000\200?\000\000\000\000\000\000\000\000\000\000\000\000\000\000\200?\000\000\000\000\000\000\000\000\000\000\000\000\000\000\200?\000\000\000\000\000\000\000\000\000\000\000\000\000\000\200?\000\000\000\000\000\000\000\000\000\000\000\000\000\000\200?\000\000\000\000\000\000\000\000\000\000\000\000\000\000\200?\000\000\000\000\000\000\000\000\000\000\000\000\000\000\200?\000\000\000\000\000\000\000\000\000\000\000\000\000\000\200?\000\000\000\000\000\000\000\000\000\000\000\000\000\000\200?\000\000\000\000\000\000\000\000\000\000\000\000\000\000\200?\000\000\000\000\000\000\000\000\000\000\000\000\000\000\200?\000\000\000\000\000\000\000\000\000\000\000\000\000\000\200?\000\000\000\000\000\000\000\000\000\000\000\000\000\000\200?\000\000\000\000\000\000\000\000\000\000\000\000\000\000\200?\000\000\000\000\000\000\000\000\000\000\000\000\000\000\200?\000\000\000\000\000\000\000\000\000\000\000\000\000\000\200?\000\000\000\000\000\000\000\000\000\000\000\000\000\000\200?\000\000\000\000\000\000\000\000\000\000\000\000\000\000\200?\000\000\000\000\000\000\000\000\000\000\000\000\000\000\200?\000\000\000\000\000\000\000\000\000\000\000\000\000\000\200?\000\000\000\000\000\000\000\000\000\000\000\000\000\000\200?\000\000\000\000\000\000\000\000\000\000\000\000\000\000\200?\000\000\000\000\000\000\000\000\000\000\000\000\000\000\200?\000\000\000\000\000\000\000\000\000\000\000\000\000\000\200?\000\000\000\000\000\000\000\000\000\000\000\000\000\000\200?\000\000\000\000\000\000\000\000\000\000\000\000\000\000\200?\000\000\000\000\000\000\000\000\000\000\000\000\000\000\200?\000\000\000\000\000\000\000\000\000\000\000\000\000\000\200?\000\000\000\000\000\000\000\000\000\000\000\000\000\000\200?\000\000\000\000\000\000\000\000\000\000\000\000\000\000\200?\000\000\000\000\000\000\000\000\000\000\000\000\000\000\200?\000\000\000\000\000\000\000\000\000\000\000\000\000\000\200?\000\000\000\000\000\000\000\000\000\000\000\000\000\000\200?\000\000\000\000\000\000\000\000\000\000\000\000\000\000\200?\000\000\000\000\000\000\000\000\000\000\000\000\000\000\200?\000\000\000\000\000\000\000\000\000\000\000\000\000\000\200?\000\000\000\000\000\000\000\000\000\000\000\000\000\000\200?\000\000\000\000\000\000\000\000\000\000\000\000\000\000\200?\000\000\000\000\000\000\000\000\000\000\000\000\000\000\200?\000\000\000\000\000\000\000\000\000\000\000\000\000\000\200?\000\000\000\000\000\000\000\000\000\000\000\000\000\000\200?\000\000\000\000\000\000\000\000\000\000\000\000\000\000\200?\000\000\000\000\000\000\000\000\000\000\000\000\000\000\200?\000\000\000\000\000\000\000\000\000\000\000\000\000\000\200?\000\000\000\000\000\000\000\000\000\000\000\000\000\000\200?\000\000\000\000\000\000\000\000\000\000\000\000\000\000\200?\000\000\000\000\000\000\000\000\000\000\000\000\000\000\200?\000\000\000\000\000\000\000\000\000\000\000\000\000\000\200?\000\000\000\000\000\000\000\000\000\000\000\000\000\000\200?\000\000\000\000\000\000\000\000\000\000\000\000\000\000\200?\000\000\000\000\000\000\000\000\000\000\000\000\000\000\200?\000\000\000\000\000\000\000\000\000\000\000\000\000\000\200?\000\000\000\000\000\000\000\000\000\000\000\000\000\000\200?\000\000\000\000\000\000\000\000\000\000\000\000\000\000\200?\000\000\000\000\000\000\000\000\000\000\000\000\000\000\200?\000\000\000\000\000\000\000\000\000\000\000\000\000\000\200?\000\000\000\000\000\000\000\000\000\000\000\000\000\000\200?\000\000\000\000\000\000\000\000\000\000\000\000\000\000\200?\000\000\000\000\000\000\000\000\000\000\000\000\000\000\200?\000\000\000\000\000\000\000\000\000\000\000\000\000\000\200?\000\000\000\000\000\000\000\000\000\000\000\000\000\000\200?\000\000\000\000\000\000\000\000\000\000\000\000\000\000\200?\000\000\000\000\000\000\000\000\000\000\000\000\000\000\200?\000\000\000\000\000\000\000\000\000\000\000\000\000\000\200?\000\000\000\000\000\000\000\000\000\000\000\000\000\000\200?\000\000\000\000\000\000\000\000\000\000\000\000\000\000\200?\000\000\000\000\000\000\000\000\000\000\000\000\000\000\200?\000\000\000\000\000\000\000\000\000\000\000\000\000\000\200?\000\000\000\000\000\000\000\000\000\000\000\000\000\000\200?\000\000\000\000\000\000\000\000\000\000\000\000\000\000\200?\000\000\000\000\000\000\000\000\000\000\000\000\000\000\200?\000\000\000\000\000\000\000\000\000\000\000\000\000\000\200?\000\000\000\000\000\000\000\000\000\000\000\000\000\000\200?\000\000\000\000\000\000\000\000\000\000\000\000\000\000\200?\000\000\000\000\000\000\000\000\000\000\000\000\000\000\200?\000\000\000\000\000\000\000\000\000\000\000\000\000\000\200?\000\000\000\000\000\000\000\000\000\000\000\000\000\000\200?\000\000\000\000\000\000\000\000\000\000\000\000\000\000\200?\000\000\000\000\000\000\000\000\000\000\000\000\000\000\200?\000\000\000\000\000\000\000\000\000\000\000\000\000\000\200?\000\000\000\000\000\000\000\000\000\000\000\000\000\000\200?\000\000\000\000\000\000\000\000\000\000\000\000\000\000\200?\000\000\000\000\000\000\000\000\000\000\000\000\000\000\200?\000\000\000\000\000\000\000\000\000\000\000\000\000\000\200?\000\000\000\000\000\000\000\000\000\000\000\000\000\000\200?\000\000\000\000\000\000\000\000\000\000\000\000\000\000\200?\000\000\000\000\000\000\000\000\000\000\000\000\000\000\200?\000\000\000\000\000\000\000\000\000\000\000\000\000\000\200?\000\000\000\000\000\000\000\000\000\000\000\000\000\000\200?\000\000\000\000\000\000\000\000\000\000\000\000\000\000\200?\000\000\000\000\000\000\000\000\000\000\000\000\000\000\200?\000\000\000\000\000\000\000\000\000\000\000\000\000\000\200?\000\000\000\000\000\000\000\000\000\000\000\000\000\000\200?\000\000\000\000\000\000\000\000\000\000\000\000\000\000\200?\000\000\000\000\000\000\000\000\000\000\000\000\000\000\200?\000\000\000\000\000\000\000\000\000\000\000\000\000\000\200?\000\000\000\000\000\000\000\000\000\000\000\000\000\000\200?\000\000\000\000\000\000\000\000\000\000\000\000\000\000\200?\000\000\000\000\000\000\000\000\000\000\000\000\000\000\200?\000\000\000\000\000\000\000\000\000\000\000\000\000\000\200?\000\000\000\000\000\000\000\000\000\000\000\000\000\000\200?\000\000\000\000\000\000\000\000\000\000\000\000\000\000\200?\000\000\000\000\000\000\000\000\000\000\000\000\000\000\200?\000\000\000\000\000\000\000\000\000\000\000\000\000\000\200?\000\000\000\000\000\000\000\000\000\000\000\000\000\000\200?\000\000\000\000\000\000\000\000\000\000\000\000\000\000\200?\000\000\000\000\000\000\000\000\000\000\000\000\000\000\200?\000\000\000\000\000\000\000\000\000\000\000\000\000\000\200?\000\000\000\000\000\000\000\000\000\000\000\000\000\000\200?\000\000\000\000\000\000\000\000\000\000\000\000\000\000\200?\000\000\000\000\000\000\000\000\000\000\000\000\000\000\200?\000\000\000\000\000\000\000\000\000\000\000\000\000\000\200?\000\000\000\000\000\000\000\000\000\000\000\000\000\000\200?\000\000\000\000\000\000\000\000\000\000\000\000\000\000\200?\000\000\000\000\000\000\000\000\000\000\000\000\000\000\200?\000\000\000\000\000\000\000\000\000\000\000\000\000\000\200?\000\000\000\000\000\000\000\000\000\000\000\000\000\000\200?\000\000\000\000\000\000\000\000\000\000\000\000\000\000\200?\000\000\000\000\000\000\000\000\000\000\000\000\000\000\200?\000\000\000\000\000\000\000\000\000\000\000\000\000\000\200?\000\000\000\000\000\000\000\000\000\000\000\000\000\000\200?\000\000\000\000\000\000\000\000\000\000\000\000\000\000\200?\000\000\000\000\000\000\000\000\000\000\000\000\000\000\200?\000\000\000\000\000\000\000\000\000\000\000\000\000\000\200?\000\000\000\000\000\000\000\000\000\000\000\000\000\000\200?\000\000\000\000\000\000\000\000\000\000\000\000\000\000\200?\000\000\000\000\000\000\000\000\000\000\000\000\000\000\200?\000\000\000\000\000\000\000\000\000\000\000\000\000\000\200?\000\000\000\000\000\000\000\000\000\000\000\000\000\000\200?\000\000\000\000\000\000\000\000\000\000\000\000\000\000\200?\000\000\000\000\000\000\000\000\000\000\000\000\000\000\200?\000\000\000\000\000\000\000\000\000\000\000\000\000\000\200?\000\000\000\000\000\000\000\000\000\000\000\000\000\000\200?\000\000\000\000\000\000\000\000\000\000\000\000\000\000\200?\000\000\000\000\000\000\000\000\000\000\000\000\000\000\200?\000\000\000\000\000\000\000\000\000\000\000\000\000\000\200?\000\000\000\000\000\000\000\000\000\000\000\000\000\000\200?\000\000\000\000\000\000\000\000\000\000\000\000\000\000\200?\000\000\000\000\000\000\000\000\000\000\000\000\000\000\200?\000\000\000\000\000\000\000\000\000\000\000\000\000\000\200?\000\000\000\000\000\000\000\000\000\000\000\000\000\000\200?\000\000\000\000\000\000\000\000\000\000\000\000\000\000\200?\000\000\000\000\000\000\000\000\000\000\000\000\000\000\200?\000\000\000\000\000\000\000\000\000\000\000\000\000\000\200?\000\000\000\000\000\000\000\000\000\000\000\000\000\000\200?\000\000\000\000\000\000\000\000\000\000\000\000\000\000\200?\000\000\000\000\000\000\000\000\000\000\000\000\000\000\200?\000\000\000\000\000\000\000\000\000\000\000\000\000\000\200?\000\000\000\000\000\000\000\000\000\000\000\000\000\000\200?\000\000\000\000\000\000\000\000\000\000\000\000\000\000\200?\000\000\000\000\000\000\000\000\000\000\000\000\000\000\200?\000\000\000\000\000\000\000\000\000\000\000\000\000\000\200?\000\000\000\000\000\000\000\000\000\000\000\000\000\000\200?\000\000\000\000\000\000\000\000\000\000\000\000\000\000\200?\000\000\000\000\000\000\000\000\000\000\000\000\000\000\200?\000\000\000\000\000\000\000\000\000\000\000\000\000\000\200?\000\000\000\000\000\000\000\000\000\000\000\000\000\000\200?\000\000\000\000\000\000\000\000\000\000\000\000\000\000\200?\000\000\000\000\000\000\000\000\000\000\000\000\000\000\200?\000\000\000\000\000\000\000\000\000\000\000\000\000\000\200?\000\000\000\000\000\000\000\000\000\000\000\000\000\000\200?\000\000\000\000\000\000\000\000\000\000\000\000\000\000\200?\000\000\000\000\000\000\000\000\000\000\000\000\000\000\200?\000\000\000\000\000\000\000\000\000\000\000\000\000\000\200?\000\000\000\000\000\000\000\000\000\000\000\000\000\000\200?\000\000\000\000\000\000\000\000\000\000\000\000\000\000\200?\000\000\000\000\000\000\000\000\000\000\000\000\000\000\200?\000\000\000\000\000\000\000\000\000\000\000\000\000\000\200?\000\000\000\000\000\000\000\000\000\000\000\000\000\000\200?\000\000\000\000\000\000\000\000\000\000\000\000\000\000\200?\000\000\000\000\000\000\000\000\000\000\000\000\000\000\200?\000\000\000\000\000\000\000\000\000\000\000\000\000\000\200?\000\000\000\000\000\000\000\000\000\000\000\000\000\000\200?\000\000\000\000\000\000\000\000\000\000\000\000\000\000\200?\000\000\000\000\000\000\000\000\000\000\000\000\000\000\200?\000\000\000\000\000\000\000\000\000\000\000\000\000\000\200?\000\000\000\000\000\000\000\000\000\000\000\000\000\000\200?\000\000\000\000\000\000\000\000\000\000\000\000\000\000\200?\000\000\000\000\000\000\000\000\000\000\000\000\000\000\200?\000\000\000\000\000\000\000\000\000\000\000\000\000\000\200?\000\000\000\000\000\000\000\000\000\000\000\000\000\000\200?\000\000\000\000\000\000\000\000\000\000\000\000\000\000\200?\000\000\000\000\000\000\000\000\000\000\000\000\000\000\200?\000\000\000\000\000\000\000\000\000\000\000\000\000\000\200?\000\000\000\000\000\000\000\000\000\000\000\000\000\000\200?\000\000\000\000\000\000\000\000\000\000\000\000\000\000\200?\000\000\000\000\000\000\000\000\000\000\000\000\000\000\200?\000\000\000\000\000\000\000\000\000\000\000\000\000\000\200?\000\000\000\000\000\000\000\000\000\000\000\000\000\000\200?\000\000\000\000\000\000\000\000\000\000\000\000\000\000\200?\000\000\000\000\000\000\000\000\000\000\000\000\000\000\200?\000\000\000\000\000\000\000\000\000\000\000\000\000\000\200?\000\000\000\000\000\000\000\000\000\000\000\000\000\000\200?\000\000\000\000\000\000\000\000\000\000\000\000\000\000\200?\000\000\000\000\000\000\000\000\000\000\000\000\000\000\200?\000\000\000\000\000\000\000\000\000\000\000\000\000\000\200?\000\000\000\000\000\000\000\000\000\000\000\000\000\000\200?\000\000\000\000\000\000\000\000\000\000\000\000\000\000\200?\000\000\000\000\000\000\000\000\000\000\000\000\000\000\200?\000\000\000\000\000\000\000\000\000\000\000\000\000\000\200?\000\000\000\000\000\000\000\000\000\000\000\000\000\000\200?\000\000\000\000\000\000\000\000\000\000\000\000\000\000\200?\000\000\000\000\000\000\000\000\000\000\000\000\000\000\200?\000\000\000\000\000\000\000\000\000\000\000\000\000\000\200?\000\000\000\000\000\000\000\000\000\000\000\000\000\000\200?\000\000\000\000\000\000\000\000\000\000\000\000\000\000\200?\000\000\000\000\000\000\000\000\000\000\000\000\000\000\200?\000\000\000\000\000\000\000\000\000\000\000\000\000\000\200?\000\000\000\000\000\000\000\000\000\000\000\000\000\000\200?\000\000\000\000\000\000\000\000\000\000\000\000\000\000\200?\000\000\000\000\000\000\000\000\000\000\000\000\000\000\200?\000\000\000\000\000\000\000\000\000\000\000\000\000\000\200?\000\000\000\000\000\000\000\000\000\000\000\000\000\000\200?\000\000\000\000\000\000\000\000\000\000\000\000\000\000\200?\000\000\000\000\000\000\000\000\000\000\000\000\000\000\200?\000\000\000\000\000\000\000\000\000\000\000\000\000\000\200?\000\000\000\000\000\000\000\000\000\000\000\000\000\000\200?\000\000\000\000\000\000\000\000\000\000\000\000\000\000\200?\000\000\000\000\000\000\000\000\000\000\000\000\000\000\200?\000\000\000\000\000\000\000\000\000\000\000\000\000\000\200?\000\000\000\000\000\000\000\000\000\000\000\000\000\000\200?\000\000\000\000\000\000\000\000\000\000\000\000\000\000\200?\000\000\000\000\000\000\000\000\000\000\000\000\000\000\200?\000\000\000\000\000\000\000\000\000\000\000\000\000\000\200?\000\000\000\000\000\000\000\000\000\000\000\000\000\000\200?\000\000\000\000\000\000\000\000\000\000\000\000\000\000\200?\000\000\000\000\000\000\000\000\000\000\000\000\000\000\200?\000\000\000\000\000\000\000\000\000\000\000\000\000\000\200?\000\000\000\000\000\000\000\000\000\000\000\000\000\000\200?\000\000\000\000\000\000\000\000\000\000\000\000\000\000\200?\000\000\000\000\000\000\000\000\000\000\000\000\000\000\200?\000\000\000\000\000\000\000\000\000\000\000\000\000\000\200?\000\000\000\000\000\000\000\000\000\000\000\000\000\000\200?\000\000\000\000\000\000\000\000\000\000\000\000\000\000\200?\000\000\000\000\000\000\000\000\000\000\000\000\000\000\200?\000\000\000\000\000\000\000\000\000\000\000\000\000\000\200?\000\000\000\000\000\000\000\000\000\000\000\000\000\000\200?\000\000\000\000\000\000\000\000\000\000\000\000\000\000\200?\000\000\000\000\000\000\000\000\000\000\000\000\000\000\200?\000\000\000\000\000\000\000\000\000\000\000\000\000\000\200?\000\000\000\000\000\000\000\000\000\000\000\000\000\000\200?\000\000\000\000\000\000\000\000\000\000\000\000\000\000\200?\000\000\000\000\000\000\000\000\000\000\000\000\000\000\200?\000\000\000\000\000\000\000\000\000\000\000\000\000\000\200?\000\000\000\000\000\000\000\000\000\000\000\000\000\000\200?\000\000\000\000\000\000\000\000\000\000\000\000\000\000\200?\000\000\000\000\000\000\000\000\000\000\000\000\000\000\200?\000\000\000\000\000\000\000\000\000\000\000\000\000\000\200?\000\000\000\000\000\000\000\000\000\000\000\000\000\000\200?\000\000\000\000\000\000\000\000\000\000\000\000\000\000\200?\000\000\000\000\000\000\000\000\000\000\000\000\000\000\200?\000\000\000\000\000\000\000\000\000\000\000\000\000\000\200?\000\000\000\000\000\000\000\000\000\000\000\000\000\000\200?\000\000\000\000\000\000\000\000\000\000\000\000\000\000\200?\000\000\000\000\000\000\000\000\000\000\000\000\000\000\200?\000\000\000\000\000\000\000\000\000\000\000\000\000\000\200?\000\000\000\000\000\000\000\000\000\000\000\000\000\000\200?\000\000\000\000\000\000\000\000\000\000\000\000\000\000\200?\000\000\000\000\000\000\000\000\000\000\000\000\000\000\200?\000\000\000\000\000\000\000\000\000\000\000\000\000\000\200?\000\000\000\000\000\000\000\000\000\000\000\000\000\000\200?\000\000\000\000\000\000\000\000\000\000\000\000\000\000\200?\000\000\000\000\000\000\000\000\000\000\000\000\000\000\200?\000\000\000\000\000\000\000\000\000\000\000\000\000\000\200?\000\000\000\000\000\000\000\000\000\000\000\000\000\000\200?\000\000\000\000\000\000\000\000\000\000\000\000\000\000\200?\000\000\000\000\000\000\000\000\000\000\000\000\000\000\200?\000\000\000\000\000\000\000\000\000\000\000\000\000\000\200?\000\000\000\000\000\000\000\000\000\000\000\000\000\000\200?\000\000\000\000\000\000\000\000\000\000\000\000\000\000\200?\000\000\000\000\000\000\000\000\000\000\000\000\000\000\200?\000\000\000\000\000\000\000\000\000\000\000\000\000\000\200?\000\000\000\000\000\000\000\000\000\000\000\000\000\000\200?\000\000\000\000\000\000\000\000\000\000\000\000\000\000\200?\000\000\000\000\000\000\000\000\000\000\000\000\000\000\200?\000\000\000\000\000\000\000\000\000\000\000\000\000\000\200?\000\000\000\000\000\000\000\000\000\000\000\000\000\000\200?\000\000\000\000\000\000\000\000\000\000\000\000\000\000\200?\000\000\000\000\000\000\000\000\000\000\000\000\000\000\200?\000\000\000\000\000\000\000\000\000\000\000\000\000\000\200?\000\000\000\000\000\000\000\000\000\000\000\000\000\000\200?\000\000\000\000\000\000\000\000\000\000\000\000\000\000\200?\000\000\000\000\000\000\000\000\000\000\000\000\000\000\200?\000\000\000\000\000\000\000\000\000\000\000\000\000\000\200?\000\000\000\000\000\000\000\000\000\000\000\000\000\000\200?\000\000\000\000\000\000\000\000\000\000\000\000\000\000\200?\000\000\000\000\000\000\000\000\000\000\000\000\000\000\200?\000\000\000\000\000\000\000\000\000\000\000\000\000\000\200?\000\000\000\000\000\000\000\000\000\000\000\000\000\000\200?\000\000\000\000\000\000\000\000\000\000\000\000\000\000\200?\000\000\000\000\000\000\000\000\000\000\000\000\000\000\200?\000\000\000\000\000\000\000\000\000\000\000\000\000\000\200?\000\000\000\000\000\000\000\000\000\000\000\000\000\000\200?\000\000\000\000\000\000\000\000\000\000\000\000\000\000\200?\000\000\000\000\000\000\000\000\000\000\000\000\000\000\200?\000\000\000\000\000\000\000\000\000\000\000\000\000\000\200?\000\000\000\000\000\000\000\000\000\000\000\000\000\000\200?\000\000\000\000\000\000\000\000\000\000\000\000\000\000\200?\000\000\000\000\000\000\000\000\000\000\000\000\000\000\200?\000\000\000\000\000\000\000\000\000\000\000\000\000\000\200?\000\000\000\000\000\000\000\000\000\000\000\000\000\000\200?\000\000\000\000\000\000\000\000\000\000\000\000\000\000\200?\000\000\000\000\000\000\000\000\000\000\000\000\000\000\200?\000\000\000\000\000\000\000\000\000\000\000\000\000\000\200?\000\000\000\000\000\000\000\000\000\000\000\000\000\000\200?\000\000\000\000\000\000\000\000\000\000\000\000\000\000\200?\000\000\000\000\000\000\000\000\000\000\000\000\000\000\200?\000\000\000\000\000\000\000\000\000\000\000\000\000\000\200?\000\000\000\000\000\000\000\000\000\000\000\000\000\000\200?\000\000\000\000\000\000\000\000\000\000\000\000\000\000\200?\000\000\000\000\000\000\000\000\000\000\000\000\000\000\200?\000\000\000\000\000\000\000\000\000\000\000\000\000\000\200?\000\000\000\000\000\000\000\000\000\000\000\000\000\000\200?\000\000\000\000\000\000\000\000\000\000\000\000\000\000\200?\000\000\000\000\000\000\000\000\000\000\000\000\000\000\200?\000\000\000\000\000\000\000\000\000\000\000\000\000\000\200?\000\000\000\000\000\000\000\000\000\000\000\000\000\000\200?\000\000\000\000\000\000\000\000\000\000\000\000\000\000\200?\000\000\000\000\000\000\000\000\000\000\000\000\000\000\200?\000\000\000\000\000\000\000\000\000\000\000\000\000\000\200?\000\000\000\000\000\000\000\000\000\000\000\000\000\000\200?\000\000\000\000\000\000\000\000\000\000\000\000\000\000\200?\000\000\000\000\000\000\000\000\000\000\000\000\000\000\200?\000\000\000\000\000\000\000\000\000\000\000\000\000\000\200?\000\000\000\000\000\000\000\000\000\000\000\000\000\000\200?\000\000\000\000\000\000\000\000\000\000\000\000\000\000\200?\000\000\000\000\000\000\000\000\000\000\000\000\000\000\200?\000\000\000\000\000\000\000\000\000\000\000\000\000\000\200?\000\000\000\000\000\000\000\000\000\000\000\000\000\000\200?\000\000\000\000\000\000\000\000\000\000\000\000\000\000\200?\000\000\000\000\000\000\000\000\000\000\000\000\000\000\200?\000\000\000\000\000\000\000\000\000\000\000\000\000\000\200?\000\000\000\000\000\000\000\000\000\000\000\000\000\000\200?\000\000\000\000\000\000\000\000\000\000\000\000\000\000\200?\000\000\000\000\000\000\000\000\000\000\000\000\000\000\200?\000\000\000\000\000\000\000\000\000\000\000\000\000\000\200?\000\000\000\000\000\000\000\000\000\000\000\000\000\000\200?\000\000\000\000\000\000\000\000\000\000\000\000\000\000\200?\000\000\000\000\000\000\000\000\000\000\000\000\000\000\200?\000\000\000\000\000\000\000\000\000\000\000\000\000\000\200?\000\000\000\000\000\000\000\000\000\000\000\000\000\000\200?\000\000\000\000\000\000\000\000\000\000\000\000\000\000\200?\000\000\000\000\000\000\000\000\000\000\000\000\000\000\200?\000\000\000\000\000\000\000\000\000\000\000\000\000\000\200?\000\000\000\000\000\000\000\000\000\000\000\000\000\000\200?\000\000\000\000\000\000\000\000\000\000\000\000\000\000\200?\000\000\000\000\000\000\000\000\000\000\000\000\000\000\200?\000\000\000\000\000\000\000\000\000\000\000\000\000\000\200?\000\000\000\000\000\000\000\000\000\000\000\000\000\000\200?\000\000\000\000\000\000\000\000\000\000\000\000\000\000\200?\000\000\000\000\000\000\000\000\000\000\000\000\000\000\200?\000\000\000\000\000\000\000\000\000\000\000\000\000\000\200?\000\000\000\000\000\000\000\000\000\000\000\000\000\000\200?\000\000\000\000\000\000\000\000\000\000\000\000\000\000\200?\000\000\000\000\000\000\000\000\000\000\000\000\000\000\200?\000\000\000\000\000\000\000\000\000\000\000\000\000\000\200?\000\000\000\000\000\000\000\000\000\000\000\000\000\000\200?\000\000\000\000\000\000\000\000\000\000\000\000\000\000\200?\000\000\000\000\000\000\000\000\000\000\000\000\000\000\200?\000\000\000\000\000\000\000\000\000\000\000\000\000\000\200?\000\000\000\000\000\000\000\000\000\000\000\000\000\000\200?\000\000\000\000\000\000\000\000\000\000\000\000\000\000\200?\000\000\000\000\000\000\000\000\000\000\000\000\000\000\200?\000\000\000\000\000\000\000\000\000\000\000\000\000\000\200?\000\000\000\000\000\000\000\000\000\000\000\000\000\000\200?\000\000\000\000\000\000\000\000\000\000\000\000\000\000\200?\000\000\000\000\000\000\000\000\000\000\000\000\000\000\200?\000\000\000\000\000\000\000\000\000\000\000\000\000\000\200?\000\000\000\000\000\000\000\000\000\000\000\000\000\000\200?\000\000\000\000\000\000\000\000\000\000\000\000\000\000\200?\000\000\000\000\000\000\000\000\000\000\000\000\000\000\200?\000\000\000\000\000\000\000\000\000\000\000\000\000\000\200?\000\000\000\000\000\000\000\000\000\000\000\000\000\000\200?\000\000\000\000\000\000\000\000\000\000\000\000\000\000\200?\000\000\000\000\000\000\000\000\000\000\000\000\000\000\200?\000\000\000\000\000\000\000\000\000\000\000\000\000\000\200?\000\000\000\000\000\000\000\000\000\000\000\000\000\000\200?\000\000\000\000\000\000\000\000\000\000\000\000\000\000\200?\000\000\000\000\000\000\000\000\000\000\000\000\000\000\200?\000\000\000\000\000\000\000\000\000\000\000\000\000\000\200?\000\000\000\000\000\000\000\000\000\000\000\000\000\000\200?\000\000\000\000\000\000\000\000\000\000\000\000\000\000\200?\000\000\000\000\000\000\000\000\000\000\000\000\000\000\200?\000\000\000\000\000\000\000\000\000\000\000\000\000\000\200?\000\000\000\000\000\000\000\000\000\000\000\000\000\000\200?\000\000\000\000\000\000\000\000\000\000\000\000\000\000\200?\000\000\000\000\000\000\000\000\000\000\000\000\000\000\200?\000\000\000\000\000\000\000\000\000\000\000\000\000\000\200?\000\000\000\000\000\000\000\000\000\000\000\000\000\000\200?\000\000\000\000\000\000\000\000\000\000\000\000\000\000\200?\000\000\000\000\000\000\000\000\000\000\000\000\000\000\200?\000\000\000\000\000\000\000\000\000\000\000\000\000\000\200?\000\000\000\000\000\000\000\000\000\000\000\000\000\000\200?\000\000\000\000\000\000\000\000\000\000\000\000\000\000\200?\000\000\000\000\000\000\000\000\000\000\000\000\000\000\200?\000\000\000\000\000\000\000\000\000\000\000\000\000\000\200?\000\000\000\000\000\000\000\000\000\000\000\000\000\000\200?\000\000\000\000\000\000\000\000\000\000\000\000\000\000\200?\000\000\000\000\000\000\000\000\000\000\000\000\000\000\200?\000\000\000\000\000\000\000\000\000\000\000\000\000\000\200?\000\000\000\000\000\000\000\000\000\000\000\000\000\000\200?\000\000\000\000\000\000\000\000\000\000\000\000\000\000\200?\000\000\000\000\000\000\000\000\000\000\000\000\000\000\200?\000\000\000\000\000\000\000\000\000\000\000\000\000\000\200?\000\000\000\000\000\000\000\000\000\000\000\000\000\000\200?\000\000\000\000\000\000\000\000\000\000\000\000\000\000\200?\000\000\000\000\000\000\000\000\000\000\000\000\000\000\200?\000\000\000\000\000\000\000\000\000\000\000\000\000\000\200?\000\000\000\000\000\000\000\000\000\000\000\000\000\000\200?\000\000\000\000\000\000\000\000\000\000\000\000\000\000\200?\000\000\000\000\000\000\000\000\000\000\000\000\000\000\200?\000\000\000\000\000\000\000\000\000\000\000\000\000\000\200?\000\000\000\000\000\000\000\000\000\000\000\000\000\000\200?\000\000\000\000\000\000\000\000\000\000\000\000\000\000\200?\000\000\000\000\000\000\000\000\000\000\000\000\000\000\200?\000\000\000\000\000\000\000\000\000\000\000\000\000\000\200?\000\000\000\000\000\000\000\000\000\000\000\000\000\000\200?\000\000\000\000\000\000\000\000\000\000\000\000\000\000\200?\000\000\000\000\000\000\000\000\000\000\000\000\000\000\200?\000\000\000\000\000\000\000\000\000\000\000\000\000\000\200?\000\000\000\000\000\000\000\000\000\000\000\000\000\000\200?\000\000\000\000\000\000\000\000\000\000\000\000\000\000\200?\000\000\000\000\000\000\000\000\000\000\000\000\000\000\200?\000\000\000\000\000\000\000\000\000\000\000\000\000\000\200?\000\000\000\000\000\000\000\000\000\000\000\000\000\000\200?\000\000\000\000\000\000\000\000\000\000\000\000\000\000\200?\000\000\000\000\000\000\000\000\000\000\000\000\000\000\200?\000\000\000\000\000\000\000\000\000\000\000\000\000\000\200?\000\000\000\000\000\000\000\000\000\000\000\000\000\000\200?\000\000\000\000\000\000\000\000\000\000\000\000\000\000\200?\000\000\000\000\000\000\000\000\000\000\000\000\000\000\200?\000\000\000\000\000\000\000\000\000\000\000\000\000\000\200?\000\000\000\000\000\000\000\000\000\000\000\000\000\000\200?\000\000\000\000\000\000\000\000\000\000\000\000\000\000\200?\000\000\000\000\000\000\000\000\000\000\000\000\000\000\200?\000\000\000\000\000\000\000\000\000\000\000\000\000\000\200?\000\000\000\000\000\000\000\000\000\000\000\000\000\000\200?\000\000\000\000\000\000\000\000\000\000\000\000\000\000\200?\000\000\000\000\000\000\000\000\000\000\000\000\000\000\200?\000\000\000\000\000\000\000\000\000\000\000\000\000\000\200?\000\000\000\000\000\000\000\000\000\000\000\000\000\000\200?\000\000\000\000\000\000\000\000\000\000\000\000\000\000\200?\000\000\000\000\000\000\000\000\000\000\000\000\000\000\200?\000\000\000\000\000\000\000\000\000\000\000\000"
      }
    }
  }
}
node {
  name: "Const_1"
  op: "Const"
  device: "/device:CPU:0"
  attr {
    key: "_output_shapes"
    value {
      list {
        shape {
          dim {
            size: 100
          }
          dim {
            size: 1
          }
        }
      }
    }
  }
  attr {
    key: "dtype"
    value {
      type: DT_FLOAT
    }
  }
  attr {
    key: "value"
    value {
      tensor {
        dtype: DT_FLOAT
        tensor_shape {
          dim {
            size: 100
          }
          dim {
            size: 1
          }
        }
        tensor_content: "\000\000\200?\000\000\200?\000\000\200?\000\000\200?\000\000\200?\000\000\200?\000\000\200?\000\000\200?\000\000\200?\000\000\200?\000\000\200?\000\000\200?\000\000\200?\000\000\200?\000\000\200?\000\000\200?\000\000\200?\000\000\200?\000\000\200?\000\000\200?\000\000\200?\000\000\200?\000\000\200?\000\000\200?\000\000\200?\000\000\200?\000\000\200?\000\000\200?\000\000\200?\000\000\200?\000\000\200?\000\000\200?\000\000\200?\000\000\200?\000\000\200?\000\000\200?\000\000\200?\000\000\200?\000\000\200?\000\000\200?\000\000\200?\000\000\200?\000\000\200?\000\000\200?\000\000\200?\000\000\200?\000\000\200?\000\000\200?\000\000\200?\000\000\200?\000\000\200?\000\000\200?\000\000\200?\000\000\200?\000\000\200?\000\000\200?\000\000\200?\000\000\200?\000\000\200?\000\000\200?\000\000\200?\000\000\200?\000\000\200?\000\000\200?\000\000\200?\000\000\200?\000\000\200?\000\000\200?\000\000\200?\000\000\200?\000\000\200?\000\000\200?\000\000\200?\000\000\200?\000\000\200?\000\000\200?\000\000\200?\000\000\200?\000\000\200?\000\000\200?\000\000\200?\000\000\200?\000\000\200?\000\000\200?\000\000\200?\000\000\200?\000\000\200?\000\000\200?\000\000\200?\000\000\200?\000\000\200?\000\000\200?\000\000\200?\000\000\200?\000\000\200?\000\000\200?\000\000\200?\000\000\200?\000\000\200?\000\000\200?"
      }
    }
  }
}
node {
  name: "conv1d/kernel/Initializer/random_uniform/shape"
  op: "Const"
  attr {
    key: "_class"
    value {
      list {
        s: "loc:@conv1d/kernel"
      }
    }
  }
  attr {
    key: "_output_shapes"
    value {
      list {
        shape {
          dim {
            size: 3
          }
        }
      }
    }
  }
  attr {
    key: "dtype"
    value {
      type: DT_INT32
    }
  }
  attr {
    key: "value"
    value {
      tensor {
        dtype: DT_INT32
        tensor_shape {
          dim {
            size: 3
          }
        }
        tensor_content: "\003\000\000\000\004\000\000\000\024\000\000\000"
      }
    }
  }
}
node {
  name: "conv1d/kernel/Initializer/random_uniform/min"
  op: "Const"
  attr {
    key: "_class"
    value {
      list {
        s: "loc:@conv1d/kernel"
      }
    }
  }
  attr {
    key: "_output_shapes"
    value {
      list {
        shape {
        }
      }
    }
  }
  attr {
    key: "dtype"
    value {
      type: DT_FLOAT
    }
  }
  attr {
    key: "value"
    value {
      tensor {
        dtype: DT_FLOAT
        tensor_shape {
        }
        float_val: -0.28867512941360474
      }
    }
  }
}
node {
  name: "conv1d/kernel/Initializer/random_uniform/max"
  op: "Const"
  attr {
    key: "_class"
    value {
      list {
        s: "loc:@conv1d/kernel"
      }
    }
  }
  attr {
    key: "_output_shapes"
    value {
      list {
        shape {
        }
      }
    }
  }
  attr {
    key: "dtype"
    value {
      type: DT_FLOAT
    }
  }
  attr {
    key: "value"
    value {
      tensor {
        dtype: DT_FLOAT
        tensor_shape {
        }
        float_val: 0.28867512941360474
      }
    }
  }
}
node {
  name: "conv1d/kernel/Initializer/random_uniform/RandomUniform"
  op: "RandomUniform"
  input: "conv1d/kernel/Initializer/random_uniform/shape"
  attr {
    key: "T"
    value {
      type: DT_INT32
    }
  }
  attr {
    key: "_class"
    value {
      list {
        s: "loc:@conv1d/kernel"
      }
    }
  }
  attr {
    key: "_output_shapes"
    value {
      list {
        shape {
          dim {
            size: 3
          }
          dim {
            size: 4
          }
          dim {
            size: 20
          }
        }
      }
    }
  }
  attr {
    key: "dtype"
    value {
      type: DT_FLOAT
    }
  }
  attr {
    key: "seed"
    value {
      i: 0
    }
  }
  attr {
    key: "seed2"
    value {
      i: 0
    }
  }
}
node {
  name: "conv1d/kernel/Initializer/random_uniform/sub"
  op: "Sub"
  input: "conv1d/kernel/Initializer/random_uniform/max"
  input: "conv1d/kernel/Initializer/random_uniform/min"
  attr {
    key: "T"
    value {
      type: DT_FLOAT
    }
  }
  attr {
    key: "_class"
    value {
      list {
        s: "loc:@conv1d/kernel"
      }
    }
  }
  attr {
    key: "_output_shapes"
    value {
      list {
        shape {
        }
      }
    }
  }
}
node {
  name: "conv1d/kernel/Initializer/random_uniform/mul"
  op: "Mul"
  input: "conv1d/kernel/Initializer/random_uniform/RandomUniform"
  input: "conv1d/kernel/Initializer/random_uniform/sub"
  attr {
    key: "T"
    value {
      type: DT_FLOAT
    }
  }
  attr {
    key: "_class"
    value {
      list {
        s: "loc:@conv1d/kernel"
      }
    }
  }
  attr {
    key: "_output_shapes"
    value {
      list {
        shape {
          dim {
            size: 3
          }
          dim {
            size: 4
          }
          dim {
            size: 20
          }
        }
      }
    }
  }
}
node {
  name: "conv1d/kernel/Initializer/random_uniform"
  op: "Add"
  input: "conv1d/kernel/Initializer/random_uniform/mul"
  input: "conv1d/kernel/Initializer/random_uniform/min"
  attr {
    key: "T"
    value {
      type: DT_FLOAT
    }
  }
  attr {
    key: "_class"
    value {
      list {
        s: "loc:@conv1d/kernel"
      }
    }
  }
  attr {
    key: "_output_shapes"
    value {
      list {
        shape {
          dim {
            size: 3
          }
          dim {
            size: 4
          }
          dim {
            size: 20
          }
        }
      }
    }
  }
}
node {
  name: "conv1d/kernel"
  op: "VariableV2"
  attr {
    key: "_class"
    value {
      list {
        s: "loc:@conv1d/kernel"
      }
    }
  }
  attr {
    key: "_output_shapes"
    value {
      list {
        shape {
          dim {
            size: 3
          }
          dim {
            size: 4
          }
          dim {
            size: 20
          }
        }
      }
    }
  }
  attr {
    key: "container"
    value {
      s: ""
    }
  }
  attr {
    key: "dtype"
    value {
      type: DT_FLOAT
    }
  }
  attr {
    key: "shape"
    value {
      shape {
        dim {
          size: 3
        }
        dim {
          size: 4
        }
        dim {
          size: 20
        }
      }
    }
  }
  attr {
    key: "shared_name"
    value {
      s: ""
    }
  }
}
node {
  name: "conv1d/kernel/Assign"
  op: "Assign"
  input: "conv1d/kernel"
  input: "conv1d/kernel/Initializer/random_uniform"
  attr {
    key: "T"
    value {
      type: DT_FLOAT
    }
  }
  attr {
    key: "_class"
    value {
      list {
        s: "loc:@conv1d/kernel"
      }
    }
  }
  attr {
    key: "_output_shapes"
    value {
      list {
        shape {
          dim {
            size: 3
          }
          dim {
            size: 4
          }
          dim {
            size: 20
          }
        }
      }
    }
  }
  attr {
    key: "use_locking"
    value {
      b: true
    }
  }
  attr {
    key: "validate_shape"
    value {
      b: true
    }
  }
}
node {
  name: "conv1d/kernel/read"
  op: "Identity"
  input: "conv1d/kernel"
  attr {
    key: "T"
    value {
      type: DT_FLOAT
    }
  }
  attr {
    key: "_class"
    value {
      list {
        s: "loc:@conv1d/kernel"
      }
    }
  }
  attr {
    key: "_output_shapes"
    value {
      list {
        shape {
          dim {
            size: 3
          }
          dim {
            size: 4
          }
          dim {
            size: 20
          }
        }
      }
    }
  }
}
node {
  name: "conv1d/bias/Initializer/zeros/shape_as_tensor"
  op: "Const"
  attr {
    key: "_class"
    value {
      list {
        s: "loc:@conv1d/bias"
      }
    }
  }
  attr {
    key: "_output_shapes"
    value {
      list {
        shape {
          dim {
            size: 1
          }
        }
      }
    }
  }
  attr {
    key: "dtype"
    value {
      type: DT_INT32
    }
  }
  attr {
    key: "value"
    value {
      tensor {
        dtype: DT_INT32
        tensor_shape {
          dim {
            size: 1
          }
        }
        int_val: 20
      }
    }
  }
}
node {
  name: "conv1d/bias/Initializer/zeros/Const"
  op: "Const"
  attr {
    key: "_class"
    value {
      list {
        s: "loc:@conv1d/bias"
      }
    }
  }
  attr {
    key: "_output_shapes"
    value {
      list {
        shape {
        }
      }
    }
  }
  attr {
    key: "dtype"
    value {
      type: DT_FLOAT
    }
  }
  attr {
    key: "value"
    value {
      tensor {
        dtype: DT_FLOAT
        tensor_shape {
        }
        float_val: 0.0
      }
    }
  }
}
node {
  name: "conv1d/bias/Initializer/zeros"
  op: "Fill"
  input: "conv1d/bias/Initializer/zeros/shape_as_tensor"
  input: "conv1d/bias/Initializer/zeros/Const"
  attr {
    key: "T"
    value {
      type: DT_FLOAT
    }
  }
  attr {
    key: "_class"
    value {
      list {
        s: "loc:@conv1d/bias"
      }
    }
  }
  attr {
    key: "_output_shapes"
    value {
      list {
        shape {
          dim {
            size: 20
          }
        }
      }
    }
  }
  attr {
    key: "index_type"
    value {
      type: DT_INT32
    }
  }
}
node {
  name: "conv1d/bias"
  op: "VariableV2"
  attr {
    key: "_class"
    value {
      list {
        s: "loc:@conv1d/bias"
      }
    }
  }
  attr {
    key: "_output_shapes"
    value {
      list {
        shape {
          dim {
            size: 20
          }
        }
      }
    }
  }
  attr {
    key: "container"
    value {
      s: ""
    }
  }
  attr {
    key: "dtype"
    value {
      type: DT_FLOAT
    }
  }
  attr {
    key: "shape"
    value {
      shape {
        dim {
          size: 20
        }
      }
    }
  }
  attr {
    key: "shared_name"
    value {
      s: ""
    }
  }
}
node {
  name: "conv1d/bias/Assign"
  op: "Assign"
  input: "conv1d/bias"
  input: "conv1d/bias/Initializer/zeros"
  attr {
    key: "T"
    value {
      type: DT_FLOAT
    }
  }
  attr {
    key: "_class"
    value {
      list {
        s: "loc:@conv1d/bias"
      }
    }
  }
  attr {
    key: "_output_shapes"
    value {
      list {
        shape {
          dim {
            size: 20
          }
        }
      }
    }
  }
  attr {
    key: "use_locking"
    value {
      b: true
    }
  }
  attr {
    key: "validate_shape"
    value {
      b: true
    }
  }
}
node {
  name: "conv1d/bias/read"
  op: "Identity"
  input: "conv1d/bias"
  attr {
    key: "T"
    value {
      type: DT_FLOAT
    }
  }
  attr {
    key: "_class"
    value {
      list {
        s: "loc:@conv1d/bias"
      }
    }
  }
  attr {
    key: "_output_shapes"
    value {
      list {
        shape {
          dim {
            size: 20
          }
        }
      }
    }
  }
}
node {
  name: "conv1d/dilation_rate"
  op: "Const"
  attr {
    key: "_output_shapes"
    value {
      list {
        shape {
          dim {
            size: 1
          }
        }
      }
    }
  }
  attr {
    key: "dtype"
    value {
      type: DT_INT32
    }
  }
  attr {
    key: "value"
    value {
      tensor {
        dtype: DT_INT32
        tensor_shape {
          dim {
            size: 1
          }
        }
        int_val: 1
      }
    }
  }
}
node {
  name: "conv1d/conv1d/ExpandDims/dim"
  op: "Const"
  attr {
    key: "_output_shapes"
    value {
      list {
        shape {
        }
      }
    }
  }
  attr {
    key: "dtype"
    value {
      type: DT_INT32
    }
  }
  attr {
    key: "value"
    value {
      tensor {
        dtype: DT_INT32
        tensor_shape {
        }
        int_val: 1
      }
    }
  }
}
node {
  name: "conv1d/conv1d/ExpandDims"
  op: "ExpandDims"
  input: "Const"
  input: "conv1d/conv1d/ExpandDims/dim"
  attr {
    key: "T"
    value {
      type: DT_FLOAT
    }
  }
  attr {
    key: "Tdim"
    value {
      type: DT_INT32
    }
  }
  attr {
    key: "_output_shapes"
    value {
      list {
        shape {
          dim {
            size: 100
          }
          dim {
            size: 1
          }
          dim {
            size: 10
          }
          dim {
            size: 4
          }
        }
      }
    }
  }
}
node {
  name: "conv1d/conv1d/ExpandDims_1/dim"
  op: "Const"
  attr {
    key: "_output_shapes"
    value {
      list {
        shape {
        }
      }
    }
  }
  attr {
    key: "dtype"
    value {
      type: DT_INT32
    }
  }
  attr {
    key: "value"
    value {
      tensor {
        dtype: DT_INT32
        tensor_shape {
        }
        int_val: 0
      }
    }
  }
}
node {
  name: "conv1d/conv1d/ExpandDims_1"
  op: "ExpandDims"
  input: "conv1d/kernel/read"
  input: "conv1d/conv1d/ExpandDims_1/dim"
  attr {
    key: "T"
    value {
      type: DT_FLOAT
    }
  }
  attr {
    key: "Tdim"
    value {
      type: DT_INT32
    }
  }
  attr {
    key: "_output_shapes"
    value {
      list {
        shape {
          dim {
            size: 1
          }
          dim {
            size: 3
          }
          dim {
            size: 4
          }
          dim {
            size: 20
          }
        }
      }
    }
  }
}
node {
  name: "conv1d/conv1d/Conv2D"
  op: "Conv2D"
  input: "conv1d/conv1d/ExpandDims"
  input: "conv1d/conv1d/ExpandDims_1"
  attr {
    key: "T"
    value {
      type: DT_FLOAT
    }
  }
  attr {
    key: "_output_shapes"
    value {
      list {
        shape {
          dim {
            size: 100
          }
          dim {
            size: 1
          }
          dim {
            size: 10
          }
          dim {
            size: 20
          }
        }
      }
    }
  }
  attr {
    key: "data_format"
    value {
      s: "NHWC"
    }
  }
  attr {
    key: "dilations"
    value {
      list {
        i: 1
        i: 1
        i: 1
        i: 1
      }
    }
  }
  attr {
    key: "padding"
    value {
      s: "SAME"
    }
  }
  attr {
    key: "strides"
    value {
      list {
        i: 1
        i: 1
        i: 1
        i: 1
      }
    }
  }
  attr {
    key: "use_cudnn_on_gpu"
    value {
      b: true
    }
  }
}
node {
  name: "conv1d/conv1d/Squeeze"
  op: "Squeeze"
  input: "conv1d/conv1d/Conv2D"
  attr {
    key: "T"
    value {
      type: DT_FLOAT
    }
  }
  attr {
    key: "_output_shapes"
    value {
      list {
        shape {
          dim {
            size: 100
          }
          dim {
            size: 10
          }
          dim {
            size: 20
          }
        }
      }
    }
  }
  attr {
    key: "squeeze_dims"
    value {
      list {
        i: 1
      }
    }
  }
}
node {
  name: "conv1d/BiasAdd"
  op: "BiasAdd"
  input: "conv1d/conv1d/Squeeze"
  input: "conv1d/bias/read"
  attr {
    key: "T"
    value {
      type: DT_FLOAT
    }
  }
  attr {
    key: "_output_shapes"
    value {
      list {
        shape {
          dim {
            size: 100
          }
          dim {
            size: 10
          }
          dim {
            size: 20
          }
        }
      }
    }
  }
  attr {
    key: "data_format"
    value {
      s: "NHWC"
    }
  }
}
node {
  name: "conv1d_1/kernel/Initializer/random_uniform/shape"
  op: "Const"
  attr {
    key: "_class"
    value {
      list {
        s: "loc:@conv1d_1/kernel"
      }
    }
  }
  attr {
    key: "_output_shapes"
    value {
      list {
        shape {
          dim {
            size: 3
          }
        }
      }
    }
  }
  attr {
    key: "dtype"
    value {
      type: DT_INT32
    }
  }
  attr {
    key: "value"
    value {
      tensor {
        dtype: DT_INT32
        tensor_shape {
          dim {
            size: 3
          }
        }
        tensor_content: "\003\000\000\000\024\000\000\000d\000\000\000"
      }
    }
  }
}
node {
  name: "conv1d_1/kernel/Initializer/random_uniform/min"
  op: "Const"
  attr {
    key: "_class"
    value {
      list {
        s: "loc:@conv1d_1/kernel"
      }
    }
  }
  attr {
    key: "_output_shapes"
    value {
      list {
        shape {
        }
      }
    }
  }
  attr {
    key: "dtype"
    value {
      type: DT_FLOAT
    }
  }
  attr {
    key: "value"
    value {
      tensor {
        dtype: DT_FLOAT
        tensor_shape {
        }
        float_val: -0.12909944355487823
      }
    }
  }
}
node {
  name: "conv1d_1/kernel/Initializer/random_uniform/max"
  op: "Const"
  attr {
    key: "_class"
    value {
      list {
        s: "loc:@conv1d_1/kernel"
      }
    }
  }
  attr {
    key: "_output_shapes"
    value {
      list {
        shape {
        }
      }
    }
  }
  attr {
    key: "dtype"
    value {
      type: DT_FLOAT
    }
  }
  attr {
    key: "value"
    value {
      tensor {
        dtype: DT_FLOAT
        tensor_shape {
        }
        float_val: 0.12909944355487823
      }
    }
  }
}
node {
  name: "conv1d_1/kernel/Initializer/random_uniform/RandomUniform"
  op: "RandomUniform"
  input: "conv1d_1/kernel/Initializer/random_uniform/shape"
  attr {
    key: "T"
    value {
      type: DT_INT32
    }
  }
  attr {
    key: "_class"
    value {
      list {
        s: "loc:@conv1d_1/kernel"
      }
    }
  }
  attr {
    key: "_output_shapes"
    value {
      list {
        shape {
          dim {
            size: 3
          }
          dim {
            size: 20
          }
          dim {
            size: 100
          }
        }
      }
    }
  }
  attr {
    key: "dtype"
    value {
      type: DT_FLOAT
    }
  }
  attr {
    key: "seed"
    value {
      i: 0
    }
  }
  attr {
    key: "seed2"
    value {
      i: 0
    }
  }
}
node {
  name: "conv1d_1/kernel/Initializer/random_uniform/sub"
  op: "Sub"
  input: "conv1d_1/kernel/Initializer/random_uniform/max"
  input: "conv1d_1/kernel/Initializer/random_uniform/min"
  attr {
    key: "T"
    value {
      type: DT_FLOAT
    }
  }
  attr {
    key: "_class"
    value {
      list {
        s: "loc:@conv1d_1/kernel"
      }
    }
  }
  attr {
    key: "_output_shapes"
    value {
      list {
        shape {
        }
      }
    }
  }
}
node {
  name: "conv1d_1/kernel/Initializer/random_uniform/mul"
  op: "Mul"
  input: "conv1d_1/kernel/Initializer/random_uniform/RandomUniform"
  input: "conv1d_1/kernel/Initializer/random_uniform/sub"
  attr {
    key: "T"
    value {
      type: DT_FLOAT
    }
  }
  attr {
    key: "_class"
    value {
      list {
        s: "loc:@conv1d_1/kernel"
      }
    }
  }
  attr {
    key: "_output_shapes"
    value {
      list {
        shape {
          dim {
            size: 3
          }
          dim {
            size: 20
          }
          dim {
            size: 100
          }
        }
      }
    }
  }
}
node {
  name: "conv1d_1/kernel/Initializer/random_uniform"
  op: "Add"
  input: "conv1d_1/kernel/Initializer/random_uniform/mul"
  input: "conv1d_1/kernel/Initializer/random_uniform/min"
  attr {
    key: "T"
    value {
      type: DT_FLOAT
    }
  }
  attr {
    key: "_class"
    value {
      list {
        s: "loc:@conv1d_1/kernel"
      }
    }
  }
  attr {
    key: "_output_shapes"
    value {
      list {
        shape {
          dim {
            size: 3
          }
          dim {
            size: 20
          }
          dim {
            size: 100
          }
        }
      }
    }
  }
}
node {
  name: "conv1d_1/kernel"
  op: "VariableV2"
  attr {
    key: "_class"
    value {
      list {
        s: "loc:@conv1d_1/kernel"
      }
    }
  }
  attr {
    key: "_output_shapes"
    value {
      list {
        shape {
          dim {
            size: 3
          }
          dim {
            size: 20
          }
          dim {
            size: 100
          }
        }
      }
    }
  }
  attr {
    key: "container"
    value {
      s: ""
    }
  }
  attr {
    key: "dtype"
    value {
      type: DT_FLOAT
    }
  }
  attr {
    key: "shape"
    value {
      shape {
        dim {
          size: 3
        }
        dim {
          size: 20
        }
        dim {
          size: 100
        }
      }
    }
  }
  attr {
    key: "shared_name"
    value {
      s: ""
    }
  }
}
node {
  name: "conv1d_1/kernel/Assign"
  op: "Assign"
  input: "conv1d_1/kernel"
  input: "conv1d_1/kernel/Initializer/random_uniform"
  attr {
    key: "T"
    value {
      type: DT_FLOAT
    }
  }
  attr {
    key: "_class"
    value {
      list {
        s: "loc:@conv1d_1/kernel"
      }
    }
  }
  attr {
    key: "_output_shapes"
    value {
      list {
        shape {
          dim {
            size: 3
          }
          dim {
            size: 20
          }
          dim {
            size: 100
          }
        }
      }
    }
  }
  attr {
    key: "use_locking"
    value {
      b: true
    }
  }
  attr {
    key: "validate_shape"
    value {
      b: true
    }
  }
}
node {
  name: "conv1d_1/kernel/read"
  op: "Identity"
  input: "conv1d_1/kernel"
  attr {
    key: "T"
    value {
      type: DT_FLOAT
    }
  }
  attr {
    key: "_class"
    value {
      list {
        s: "loc:@conv1d_1/kernel"
      }
    }
  }
  attr {
    key: "_output_shapes"
    value {
      list {
        shape {
          dim {
            size: 3
          }
          dim {
            size: 20
          }
          dim {
            size: 100
          }
        }
      }
    }
  }
}
node {
  name: "conv1d_1/bias/Initializer/zeros/shape_as_tensor"
  op: "Const"
  attr {
    key: "_class"
    value {
      list {
        s: "loc:@conv1d_1/bias"
      }
    }
  }
  attr {
    key: "_output_shapes"
    value {
      list {
        shape {
          dim {
            size: 1
          }
        }
      }
    }
  }
  attr {
    key: "dtype"
    value {
      type: DT_INT32
    }
  }
  attr {
    key: "value"
    value {
      tensor {
        dtype: DT_INT32
        tensor_shape {
          dim {
            size: 1
          }
        }
        int_val: 100
      }
    }
  }
}
node {
  name: "conv1d_1/bias/Initializer/zeros/Const"
  op: "Const"
  attr {
    key: "_class"
    value {
      list {
        s: "loc:@conv1d_1/bias"
      }
    }
  }
  attr {
    key: "_output_shapes"
    value {
      list {
        shape {
        }
      }
    }
  }
  attr {
    key: "dtype"
    value {
      type: DT_FLOAT
    }
  }
  attr {
    key: "value"
    value {
      tensor {
        dtype: DT_FLOAT
        tensor_shape {
        }
        float_val: 0.0
      }
    }
  }
}
node {
  name: "conv1d_1/bias/Initializer/zeros"
  op: "Fill"
  input: "conv1d_1/bias/Initializer/zeros/shape_as_tensor"
  input: "conv1d_1/bias/Initializer/zeros/Const"
  attr {
    key: "T"
    value {
      type: DT_FLOAT
    }
  }
  attr {
    key: "_class"
    value {
      list {
        s: "loc:@conv1d_1/bias"
      }
    }
  }
  attr {
    key: "_output_shapes"
    value {
      list {
        shape {
          dim {
            size: 100
          }
        }
      }
    }
  }
  attr {
    key: "index_type"
    value {
      type: DT_INT32
    }
  }
}
node {
  name: "conv1d_1/bias"
  op: "VariableV2"
  attr {
    key: "_class"
    value {
      list {
        s: "loc:@conv1d_1/bias"
      }
    }
  }
  attr {
    key: "_output_shapes"
    value {
      list {
        shape {
          dim {
            size: 100
          }
        }
      }
    }
  }
  attr {
    key: "container"
    value {
      s: ""
    }
  }
  attr {
    key: "dtype"
    value {
      type: DT_FLOAT
    }
  }
  attr {
    key: "shape"
    value {
      shape {
        dim {
          size: 100
        }
      }
    }
  }
  attr {
    key: "shared_name"
    value {
      s: ""
    }
  }
}
node {
  name: "conv1d_1/bias/Assign"
  op: "Assign"
  input: "conv1d_1/bias"
  input: "conv1d_1/bias/Initializer/zeros"
  attr {
    key: "T"
    value {
      type: DT_FLOAT
    }
  }
  attr {
    key: "_class"
    value {
      list {
        s: "loc:@conv1d_1/bias"
      }
    }
  }
  attr {
    key: "_output_shapes"
    value {
      list {
        shape {
          dim {
            size: 100
          }
        }
      }
    }
  }
  attr {
    key: "use_locking"
    value {
      b: true
    }
  }
  attr {
    key: "validate_shape"
    value {
      b: true
    }
  }
}
node {
  name: "conv1d_1/bias/read"
  op: "Identity"
  input: "conv1d_1/bias"
  attr {
    key: "T"
    value {
      type: DT_FLOAT
    }
  }
  attr {
    key: "_class"
    value {
      list {
        s: "loc:@conv1d_1/bias"
      }
    }
  }
  attr {
    key: "_output_shapes"
    value {
      list {
        shape {
          dim {
            size: 100
          }
        }
      }
    }
  }
}
node {
  name: "conv1d_1/dilation_rate"
  op: "Const"
  attr {
    key: "_output_shapes"
    value {
      list {
        shape {
          dim {
            size: 1
          }
        }
      }
    }
  }
  attr {
    key: "dtype"
    value {
      type: DT_INT32
    }
  }
  attr {
    key: "value"
    value {
      tensor {
        dtype: DT_INT32
        tensor_shape {
          dim {
            size: 1
          }
        }
        int_val: 1
      }
    }
  }
}
node {
  name: "conv1d_1/conv1d/ExpandDims/dim"
  op: "Const"
  attr {
    key: "_output_shapes"
    value {
      list {
        shape {
        }
      }
    }
  }
  attr {
    key: "dtype"
    value {
      type: DT_INT32
    }
  }
  attr {
    key: "value"
    value {
      tensor {
        dtype: DT_INT32
        tensor_shape {
        }
        int_val: 1
      }
    }
  }
}
node {
  name: "conv1d_1/conv1d/ExpandDims"
  op: "ExpandDims"
  input: "conv1d/BiasAdd"
  input: "conv1d_1/conv1d/ExpandDims/dim"
  attr {
    key: "T"
    value {
      type: DT_FLOAT
    }
  }
  attr {
    key: "Tdim"
    value {
      type: DT_INT32
    }
  }
  attr {
    key: "_output_shapes"
    value {
      list {
        shape {
          dim {
            size: 100
          }
          dim {
            size: 1
          }
          dim {
            size: 10
          }
          dim {
            size: 20
          }
        }
      }
    }
  }
}
node {
  name: "conv1d_1/conv1d/ExpandDims_1/dim"
  op: "Const"
  attr {
    key: "_output_shapes"
    value {
      list {
        shape {
        }
      }
    }
  }
  attr {
    key: "dtype"
    value {
      type: DT_INT32
    }
  }
  attr {
    key: "value"
    value {
      tensor {
        dtype: DT_INT32
        tensor_shape {
        }
        int_val: 0
      }
    }
  }
}
node {
  name: "conv1d_1/conv1d/ExpandDims_1"
  op: "ExpandDims"
  input: "conv1d_1/kernel/read"
  input: "conv1d_1/conv1d/ExpandDims_1/dim"
  attr {
    key: "T"
    value {
      type: DT_FLOAT
    }
  }
  attr {
    key: "Tdim"
    value {
      type: DT_INT32
    }
  }
  attr {
    key: "_output_shapes"
    value {
      list {
        shape {
          dim {
            size: 1
          }
          dim {
            size: 3
          }
          dim {
            size: 20
          }
          dim {
            size: 100
          }
        }
      }
    }
  }
}
node {
  name: "conv1d_1/conv1d/Conv2D"
  op: "Conv2D"
  input: "conv1d_1/conv1d/ExpandDims"
  input: "conv1d_1/conv1d/ExpandDims_1"
  attr {
    key: "T"
    value {
      type: DT_FLOAT
    }
  }
  attr {
    key: "_output_shapes"
    value {
      list {
        shape {
          dim {
            size: 100
          }
          dim {
            size: 1
          }
          dim {
            size: 10
          }
          dim {
            size: 100
          }
        }
      }
    }
  }
  attr {
    key: "data_format"
    value {
      s: "NHWC"
    }
  }
  attr {
    key: "dilations"
    value {
      list {
        i: 1
        i: 1
        i: 1
        i: 1
      }
    }
  }
  attr {
    key: "padding"
    value {
      s: "SAME"
    }
  }
  attr {
    key: "strides"
    value {
      list {
        i: 1
        i: 1
        i: 1
        i: 1
      }
    }
  }
  attr {
    key: "use_cudnn_on_gpu"
    value {
      b: true
    }
  }
}
node {
  name: "conv1d_1/conv1d/Squeeze"
  op: "Squeeze"
  input: "conv1d_1/conv1d/Conv2D"
  attr {
    key: "T"
    value {
      type: DT_FLOAT
    }
  }
  attr {
    key: "_output_shapes"
    value {
      list {
        shape {
          dim {
            size: 100
          }
          dim {
            size: 10
          }
          dim {
            size: 100
          }
        }
      }
    }
  }
  attr {
    key: "squeeze_dims"
    value {
      list {
        i: 1
      }
    }
  }
}
node {
  name: "conv1d_1/BiasAdd"
  op: "BiasAdd"
  input: "conv1d_1/conv1d/Squeeze"
  input: "conv1d_1/bias/read"
  attr {
    key: "T"
    value {
      type: DT_FLOAT
    }
  }
  attr {
    key: "_output_shapes"
    value {
      list {
        shape {
          dim {
            size: 100
          }
          dim {
            size: 10
          }
          dim {
            size: 100
          }
        }
      }
    }
  }
  attr {
    key: "data_format"
    value {
      s: "NHWC"
    }
  }
}
node {
  name: "conv1d_2/kernel/Initializer/random_uniform/shape"
  op: "Const"
  attr {
    key: "_class"
    value {
      list {
        s: "loc:@conv1d_2/kernel"
      }
    }
  }
  attr {
    key: "_output_shapes"
    value {
      list {
        shape {
          dim {
            size: 3
          }
        }
      }
    }
  }
  attr {
    key: "dtype"
    value {
      type: DT_INT32
    }
  }
  attr {
    key: "value"
    value {
      tensor {
        dtype: DT_INT32
        tensor_shape {
          dim {
            size: 3
          }
        }
        tensor_content: "\003\000\000\000d\000\000\0002\000\000\000"
      }
    }
  }
}
node {
  name: "conv1d_2/kernel/Initializer/random_uniform/min"
  op: "Const"
  attr {
    key: "_class"
    value {
      list {
        s: "loc:@conv1d_2/kernel"
      }
    }
  }
  attr {
    key: "_output_shapes"
    value {
      list {
        shape {
        }
      }
    }
  }
  attr {
    key: "dtype"
    value {
      type: DT_FLOAT
    }
  }
  attr {
    key: "value"
    value {
      tensor {
        dtype: DT_FLOAT
        tensor_shape {
        }
        float_val: -0.1154700517654419
      }
    }
  }
}
node {
  name: "conv1d_2/kernel/Initializer/random_uniform/max"
  op: "Const"
  attr {
    key: "_class"
    value {
      list {
        s: "loc:@conv1d_2/kernel"
      }
    }
  }
  attr {
    key: "_output_shapes"
    value {
      list {
        shape {
        }
      }
    }
  }
  attr {
    key: "dtype"
    value {
      type: DT_FLOAT
    }
  }
  attr {
    key: "value"
    value {
      tensor {
        dtype: DT_FLOAT
        tensor_shape {
        }
        float_val: 0.1154700517654419
      }
    }
  }
}
node {
  name: "conv1d_2/kernel/Initializer/random_uniform/RandomUniform"
  op: "RandomUniform"
  input: "conv1d_2/kernel/Initializer/random_uniform/shape"
  attr {
    key: "T"
    value {
      type: DT_INT32
    }
  }
  attr {
    key: "_class"
    value {
      list {
        s: "loc:@conv1d_2/kernel"
      }
    }
  }
  attr {
    key: "_output_shapes"
    value {
      list {
        shape {
          dim {
            size: 3
          }
          dim {
            size: 100
          }
          dim {
            size: 50
          }
        }
      }
    }
  }
  attr {
    key: "dtype"
    value {
      type: DT_FLOAT
    }
  }
  attr {
    key: "seed"
    value {
